<unk>	0
<s>	0
</s>	0
▁	-2.13227
↑	-2.46785
▁the	-3.40487
▁.	-3.44327
▁,	-3.60319
s	-4.06236
▁to	-4.14306
▁a	-4.18976
▁and	-4.29393
▁of	-4.31588
▁in	-4.39777
▁'	-4.5055
⇧	-4.5216
-	-5.04973
▁-	-5.17483
▁"	-5.18567
▁was	-5.18647
▁that	-5.18709
▁for	-5.19837
ed	-5.23331
.	-5.25178
▁on	-5.29658
▁s	-5.31087
▁is	-5.32259
▁`	-5.35123
▁he	-5.36145
ing	-5.37189
▁it	-5.38312
▁with	-5.48883
▁said	-5.5833
▁:	-5.62737
▁his	-5.66435
▁at	-5.67135
▁i	-5.68765
t	-5.71144
▁as	-5.73445
▁be	-5.87231
▁have	-5.8843
▁from	-5.90103
▁by	-5.90282
▁has	-5.9675
'	-5.98037
▁her	-5.99008
▁but	-5.99297
▁she	-6.04248
▁are	-6.04971
▁they	-6.11147
d	-6.11815
▁an	-6.12556
▁who	-6.1528
▁not	-6.16186
▁this	-6.2079
▁had	-6.22295
▁we	-6.24585
e	-6.30893
▁were	-6.34472
▁their	-6.34784
▁after	-6.35761
▁been	-6.37191
y	-6.37332
ly	-6.39507
▁will	-6.4556
▁you	-6.52804
▁n	-6.54143
▁when	-6.56125
▁one	-6.56313
er	-6.6281
▁which	-6.62969
▁out	-6.66216
▁up	-6.6711
rrb	-6.70153
▁lrb	-6.70964
▁about	-6.7198
▁more	-6.72402
▁or	-6.7384
▁--	-6.7872
▁would	-6.79262
▁there	-6.80536
▁do	-6.82541
▁all	-6.83677
▁can	-6.85602
▁new	-6.86749
▁people	-6.87064
▁so	-6.87187
▁also	-6.87548
n	-6.8988
▁two	-6.93725
m	-6.96256
▁him	-6.99424
a	-7.01748
▁over	-7.02112
▁last	-7.02527
▁just	-7.03145
▁no	-7.03774
▁time	-7.04153
▁if	-7.05491
▁into	-7.05621
▁what	-7.06272
▁my	-7.08497
▁than	-7.09264
▁first	-7.11716
es	-7.12818
▁could	-7.13048
▁told	-7.13257
▁police	-7.17081
▁years	-7.17971
▁mr	-7.20154
o	-7.21143
▁re	-7.21265
▁them	-7.21616
▁before	-7.24647
r	-7.25321
▁now	-7.25808
▁other	-7.26378
▁some	-7.27161
▁year	-7.27338
▁like	-7.28056
▁down	-7.29689
▁its	-7.29721
i	-7.33581
▁home	-7.33817
▁back	-7.34072
▁did	-7.35667
▁being	-7.36236
year	-7.36392
al	-7.37241
▁me	-7.37527
old	-7.39659
because	-7.40248
▁while	-7.41165
c	-7.41407
▁where	-7.42483
▁world	-7.46367
in	-7.46941
▁three	-7.47547
▁left	-7.47575
▁only	-7.4765
▁get	-7.47762
▁our	-7.49952
▁how	-7.52185
▁?	-7.52749
during	-7.52972
▁#	-7.53937
▁family	-7.55268
▁made	-7.58277
▁most	-7.58311
▁day	-7.58375
on	-7.59148
▁then	-7.59312
▁off	-7.59818
▁found	-7.60412
th	-7.61082
▁right	-7.62248
▁may	-7.63968
▁against	-7.65181
▁very	-7.65371
▁$	-7.6578
▁make	-7.67787
▁go	-7.67825
▁life	-7.69562
▁even	-7.6971
▁man	-7.70224
▁many	-7.71452
▁u	-7.7162
man	-7.72051
▁court	-7.73182
re	-7.7321
▁around	-7.73826
▁any	-7.74138
ers	-7.74144
▁says	-7.75324
▁through	-7.75705
▁un	-7.76943
▁take	-7.77286
▁well	-7.78558
▁your	-7.7863
▁since	-7.79004
▁m	-7.80153
▁children	-7.80368
▁way	-7.81425
▁according	-7.81928
▁president	-7.83004
le	-7.83242
▁work	-7.83299
▁those	-7.83355
▁under	-7.83705
en	-7.83943
▁per	-7.84237
▁going	-7.84352
▁car	-7.8484
▁week	-7.85452
▁say	-7.85647
▁p	-7.85967
▁still	-7.86886
▁government	-7.86949
▁state	-7.87273
▁us	-7.87378
▁see	-7.88645
se	-7.88819
▁house	-7.88847
▁city	-7.89145
▁good	-7.89759
▁think	-7.90659
▁video	-7.91179
▁should	-7.91261
or	-7.91441
▁team	-7.92268
▁know	-7.93394
▁part	-7.9403
▁four	-7.94568
▁these	-7.94712
p	-7.96096
▁such	-7.96845
▁former	-7.97331
▁another	-7.97353
▁much	-7.98026
▁show	-7.98293
▁want	-7.98557
▁country	-7.99867
▁school	-8.00579
▁long	-8.00883
able	-8.00921
▁help	-8.01647
▁including	-8.01679
l	-8.01868
▁1	-8.01873
▁between	-8.02084
▁high	-8.0305
▁10	-8.03088
▁united	-8.03845
ion	-8.04124
▁cnn	-8.04568
▁night	-8.05276
▁both	-8.05479
▁used	-8.05892
▁mother	-8.06901
▁women	-8.0729
ic	-8.07344
h	-8.08431
b	-8.09444
ro	-8.09836
g	-8.09972
▁group	-8.10701
▁five	-8.10839
▁never	-8.11104
▁death	-8.11115
▁ve	-8.11373
ch	-8.11592
▁next	-8.11962
▁took	-8.12119
▁put	-8.1222
▁own	-8.12532
▁est	-8.12747
▁second	-8.1287
▁got	-8.13242
▁de	-8.13314
▁2013	-8.13501
▁later	-8.1366
▁come	-8.14343
▁today	-8.14637
▁added	-8.14738
▁public	-8.15025
▁called	-8.16353
▁pictured	-8.179
▁million	-8.1881
▁end	-8.18816
▁place	-8.18965
▁days	-8.19242
ton	-8.19291
el	-8.20266
▁same	-8.20731
▁case	-8.20752
k	-8.20971
▁national	-8.21104
▁london	-8.21288
▁best	-8.21735
ation	-8.22271
us	-8.22512
▁does	-8.22574
st	-8.22796
▁set	-8.2288
▁hospital	-8.22894
▁away	-8.22919
▁need	-8.23124
▁men	-8.2316
ar	-8.23203
ra	-8.23462
▁really	-8.23523
▁seen	-8.23564
ne	-8.24341
▁came	-8.24761
▁months	-8.25114
z	-8.25709
▁young	-8.26133
▁south	-8.26496
▁top	-8.26729
an	-8.27011
▁taken	-8.27146
▁co	-8.27412
▁cent	-8.27848
▁too	-8.28272
ri	-8.28593
▁news	-8.28609
▁reported	-8.28734
la	-8.28843
▁went	-8.29387
▁head	-8.29699
▁here	-8.29792
w	-8.2994
f	-8.30047
▁every	-8.30419
▁month	-8.30607
to	-8.30848
▁ca	-8.30994
▁19	-8.3122
▁20	-8.32164
▁six	-8.32487
▁season	-8.32592
▁war	-8.3381
▁2012	-8.33829
▁game	-8.33891
son	-8.34368
▁health	-8.34684
▁number	-8.34771
▁north	-8.35136
▁times	-8.35139
ment	-8.3524
▁father	-8.3583
▁however	-8.3625
▁2	-8.3672
▁use	-8.37194
▁money	-8.37529
▁look	-8.38245
▁far	-8.38527
▁woman	-8.39281
▁obama	-8.40052
▁great	-8.40579
▁york	-8.4076
▁11	-8.40891
▁each	-8.40973
▁little	-8.41146
▁company	-8.41389
▁report	-8.41637
▁6	-8.42161
it	-8.42321
up	-8.42665
▁free	-8.42836
▁wife	-8.42873
▁4	-8.42896
▁big	-8.42904
u	-8.43366
▁died	-8.4418
co	-8.4421
de	-8.44229
▁having	-8.44322
▁12	-8.44601
▁until	-8.44838
▁support	-8.44882
▁west	-8.45338
▁side	-8.45373
▁without	-8.4543
▁white	-8.45565
▁face	-8.45893
▁published	-8.45965
▁play	-8.46279
▁...	-8.4654
▁league	-8.46899
▁asked	-8.46947
▁give	-8.47008
▁british	-8.47347
▁water	-8.4749
▁3	-8.47601
▁something	-8.47659
▁find	-8.4795
▁child	-8.47975
▁body	-8.48104
▁lot	-8.48354
na	-8.48417
▁few	-8.48698
▁ago	-8.48806
▁england	-8.48824
▁international	-8.49058
il	-8.49408
▁club	-8.49459
▁party	-8.49615
▁states	-8.49839
▁thought	-8.50182
ia	-8.50243
▁office	-8.50433
▁following	-8.50464
ve	-8.50629
ity	-8.5103
▁law	-8.51849
▁air	-8.51901
▁am	-8.51937
▁killed	-8.52232
▁al	-8.52256
▁sunday	-8.52305
x	-8.52383
ling	-8.53015
▁security	-8.53065
▁attack	-8.5327
▁black	-8.53392
▁given	-8.53429
▁university	-8.53637
▁7	-8.53825
▁past	-8.53965
ley	-8.54282
▁hours	-8.5429
▁park	-8.54597
▁la	-8.54688
▁5	-8.54768
▁win	-8.54991
▁love	-8.55007
▁statement	-8.55033
ie	-8.5507
▁local	-8.55076
▁saying	-8.55144
ma	-8.55433
▁again	-8.55697
ul	-8.55887
lo	-8.56076
ur	-8.56288
▁monday	-8.56932
▁always	-8.57065
▁across	-8.57071
▁st	-8.5718
▁american	-8.57312
▁known	-8.57376
▁dr	-8.57531
▁uk	-8.57767
▁friday	-8.57862
▁f	-8.58166
▁15	-8.58174
▁friends	-8.58292
ies	-8.58527
▁open	-8.58546
▁18	-8.58705
▁officials	-8.59106
▁pay	-8.59188
▁couple	-8.59266
▁care	-8.59305
▁real	-8.59401
▁why	-8.59403
▁already	-8.59596
▁several	-8.59673
▁son	-8.59987
▁service	-8.60019
▁hit	-8.60078
▁near	-8.60445
▁daughter	-8.60526
▁area	-8.60535
▁star	-8.60929
▁half	-8.61045
▁c	-8.61129
▁david	-8.61237
▁fire	-8.6141
com	-8.61655
▁tuesday	-8.61659
▁cup	-8.61843
▁working	-8.62143
▁john	-8.62201
▁whether	-8.62667
▁early	-8.63115
▁different	-8.63638
▁ms	-8.63776
▁believe	-8.63997
▁despite	-8.6436
ian	-8.64759
▁saturday	-8.64762
▁outside	-8.64851
▁hard	-8.65141
▁once	-8.65155
▁taking	-8.65355
▁earlier	-8.65395
est	-8.65531
less	-8.65746
▁things	-8.65794
▁parents	-8.6587
▁behind	-8.65933
▁close	-8.65953
▁making	-8.66006
ist	-8.66337
ge	-8.66347
▁members	-8.66564
▁minister	-8.66654
1	-8.66655
▁among	-8.66908
▁start	-8.67252
▁wednesday	-8.67366
▁order	-8.67506
▁media	-8.67565
te	-8.67776
v	-8.67846
▁front	-8.67974
▁started	-8.68103
▁campaign	-8.68136
▁become	-8.68348
as	-8.68373
▁30	-8.68438
▁full	-8.68902
▁live	-8.68964
▁updated	-8.69008
▁using	-8.69237
▁shot	-8.69437
▁better	-8.69528
▁thursday	-8.69818
▁might	-8.69911
▁point	-8.70021
▁person	-8.70128
▁post	-8.7031
am	-8.7069
et	-8.70711
ti	-8.71107
▁run	-8.71259
▁ever	-8.71294
▁saw	-8.71309
▁call	-8.7159
▁military	-8.71637
▁miss	-8.71805
▁scroll	-8.71828
▁keep	-8.71899
▁lost	-8.72438
is	-8.72469
:	-8.72641
▁officers	-8.73142
▁final	-8.73254
sh	-8.73311
▁weeks	-8.73854
▁march	-8.73931
2	-8.73942
▁least	-8.74022
▁heard	-8.74486
▁business	-8.74606
▁players	-8.7506
▁must	-8.75074
fi	-8.75283
▁hand	-8.75321
ho	-8.75629
▁authorities	-8.75774
▁department	-8.75774
▁food	-8.76144
▁morning	-8.76318
▁move	-8.76336
▁social	-8.76523
▁wanted	-8.76619
▁change	-8.76788
ive	-8.76792
▁information	-8.76828
▁trying	-8.77001
▁system	-8.77124
be	-8.77802
▁small	-8.77961
▁staff	-8.78056
▁judge	-8.78076
▁job	-8.78155
▁center	-8.78429
▁name	-8.78465
▁looking	-8.78481
▁husband	-8.7863
▁spokesman	-8.78647
▁heart	-8.78781
▁8	-8.78783
▁together	-8.79094
mo	-8.79248
▁though	-8.79341
▁murder	-8.79412
▁director	-8.79714
id	-8.80421
▁13	-8.80435
ial	-8.8055
▁feel	-8.80805
ce	-8.80825
ta	-8.81035
ci	-8.81049
time	-8.81139
▁clear	-8.81144
▁stop	-8.81329
▁street	-8.81331
▁getting	-8.81665
▁released	-8.81854
▁wrote	-8.82278
▁shows	-8.82842
ter	-8.83087
▁mrs	-8.83456
▁enough	-8.83694
me	-8.8388
▁bar	-8.83988
▁yet	-8.83999
▁decision	-8.84016
▁seven	-8.84061
▁deal	-8.84264
▁chief	-8.84358
ting	-8.8436
▁britain	-8.8446
▁investigation	-8.84484
▁power	-8.8461
▁9	-8.84695
▁red	-8.84748
per	-8.84953
▁16	-8.85044
at	-8.85118
ful	-8.85261
▁third	-8.8554
ry	-8.85854
▁almost	-8.85866
▁line	-8.85943
▁himself	-8.86086
▁control	-8.86164
▁others	-8.86278
▁k	-8.86418
▁done	-8.86464
▁general	-8.86516
▁won	-8.86528
▁minutes	-8.86651
▁able	-8.86771
▁began	-8.86795
5	-8.8689
da	-8.86974
▁recent	-8.87043
▁watch	-8.87054
ty	-8.87059
▁friend	-8.87284
ent	-8.87358
▁girl	-8.8741
▁claims	-8.87885
▁january	-8.88066
▁became	-8.88086
▁along	-8.88226
▁community	-8.88393
li	-8.88409
▁2011	-8.88827
▁thing	-8.88871
▁evidence	-8.88906
out	-8.89177
▁14	-8.89412
▁arrested	-8.89433
▁b	-8.89499
ness	-8.89758
ni	-8.89794
▁road	-8.90222
▁daily	-8.90296
▁mo	-8.9032
▁return	-8.90412
,	-8.90427
▁boy	-8.90456
▁dead	-8.90521
▁room	-8.90652
▁claimed	-8.90677
▁pre	-8.90715
un	-8.9072
▁doing	-8.90721
▁less	-8.90736
▁prison	-8.90938
ca	-8.90984
ga	-8.91073
▁phone	-8.91106
▁county	-8.91134
age	-8.91241
ted	-8.91365
▁incident	-8.9161
▁inside	-8.92306
▁eight	-8.92325
▁medical	-8.92366
▁revealed	-8.92428
▁football	-8.92566
rs	-8.92623
▁april	-8.92723
▁age	-8.9275
▁games	-8.92896
▁often	-8.93083
▁further	-8.93238
▁travel	-8.93238
▁expected	-8.93354
▁facebook	-8.93392
▁17	-8.93431
ol	-8.93442
▁due	-8.93563
▁september	-8.93582
▁centre	-8.93648
▁sent	-8.93659
im	-8.9394
▁let	-8.94085
▁human	-8.94147
▁held	-8.94302
▁official	-8.94304
▁trial	-8.94487
▁match	-8.9458
▁mark	-8.94954
ate	-8.94997
▁met	-8.95251
▁yesterday	-8.95256
▁important	-8.95257
▁officer	-8.95338
▁although	-8.95432
▁mean	-8.95482
▁ex	-8.95641
▁november	-8.95674
▁site	-8.95697
▁bill	-8.95704
ant	-8.95758
▁future	-8.95828
▁likely	-8.95952
▁political	-8.96015
▁book	-8.96171
▁town	-8.9648
▁happened	-8.96731
▁online	-8.96801
os	-8.96824
▁major	-8.97031
▁late	-8.97097
ke	-8.97494
po	-8.97634
▁within	-8.97722
▁october	-8.9808
▁manager	-8.98096
ha	-8.9813
▁baby	-8.98157
▁role	-8.98341
▁film	-8.9842
▁manchester	-8.98586
▁hope	-8.98641
▁tell	-8.98699
▁december	-8.98714
▁scene	-8.98862
▁kind	-8.98927
▁fans	-8.99015
land	-8.99189
▁record	-8.99258
mp	-8.99276
led	-8.99437
▁read	-8.99458
▁june	-8.99614
▁comes	-8.99636
▁played	-8.99724
▁sex	-8.99822
▁living	-9.00016
▁fact	-9.00034
▁special	-9.00246
ine	-9.0044
▁story	-9.00447
▁michael	-9.00477
▁interview	-9.00586
ner	-9.00587
▁van	-9.00606
▁east	-9.00666
▁short	-9.00853
▁green	-9.00895
tic	-9.00921
▁history	-9.01011
▁lives	-9.01064
ad	-9.01137
▁sure	-9.01346
do	-9.0149
▁pro	-9.01514
▁light	-9.01574
▁goal	-9.0165
▁press	-9.01665
go	-9.01772
▁leave	-9.01807
▁someone	-9.01847
▁washington	-9.0211
▁large	-9.02334
▁25	-9.02462
▁process	-9.02792
lin	-9.03018
▁leader	-9.0302
▁nothing	-9.03032
der	-9.03034
0	-9.03132
▁received	-9.03205
▁spent	-9.03272
▁council	-9.03333
▁jail	-9.03394
▁force	-9.03507
▁lead	-9.03658
▁2010	-9.03724
▁describ	-9.03812
▁research	-9.0391
▁sea	-9.04087
▁con	-9.04135
▁led	-9.04214
3	-9.04303
▁design	-9.04363
▁forward	-9.04373
▁cost	-9.04554
▁tried	-9.04783
▁action	-9.04873
▁involved	-9.05105
ll	-9.0516
▁james	-9.05172
▁august	-9.05208
▁summer	-9.05283
▁ground	-9.05288
by	-9.0545
▁try	-9.05483
▁accused	-9.0551
▁series	-9.05596
line	-9.05725
▁100	-9.05828
9	-9.06053
▁gave	-9.06163
▁july	-9.06319
ally	-9.0643
min	-9.06482
▁risk	-9.06569
▁di	-9.06684
▁paul	-9.06792
▁possible	-9.0696
▁course	-9.0717
▁bank	-9.07235
no	-9.07258
▁america	-9.07313
▁training	-9.07453
▁anything	-9.07512
▁charges	-9.07553
▁drug	-9.07877
mer	-9.0792
▁old	-9.08027
ba	-9.081
ey	-9.08254
▁50	-9.08289
ham	-9.08333
▁china	-9.08354
▁cancer	-9.08391
▁event	-9.08586
▁player	-9.08601
▁believed	-9.08722
way	-9.08832
▁royal	-9.08925
▁building	-9.0906
▁legal	-9.09231
▁bit	-9.09302
▁g	-9.09536
les	-9.09681
▁bad	-9.09837
▁prime	-9.09917
▁space	-9.0992
▁students	-9.10115
▁fa	-9.10189
den	-9.10192
▁treatment	-9.10289
▁ll	-9.10517
ous	-9.1056
▁2014	-9.11435
ard	-9.11457
▁federal	-9.1148
▁twitter	-9.11609
▁result	-9.11812
▁rights	-9.12405
▁fight	-9.12527
▁reports	-9.12542
dy	-9.12659
▁cut	-9.12968
▁career	-9.12999
que	-9.13056
▁nearly	-9.13243
▁website	-9.13332
▁40	-9.13395
▁ahead	-9.13415
▁charged	-9.13551
ber	-9.13558
▁strong	-9.13712
▁enjoy	-9.13723
▁everything	-9.13724
▁rest	-9.13764
▁station	-9.14155
▁turned	-9.14159
▁victim	-9.14197
ish	-9.14487
▁coming	-9.14684
▁ma	-9.14815
million	-9.15095
▁church	-9.15149
▁board	-9.15276
▁tax	-9.15693
▁miles	-9.15827
▁foreign	-9.15829
▁market	-9.15839
▁soon	-9.15844
▁february	-9.15883
▁playing	-9.16157
▁w	-9.1616
▁race	-9.16208
▁moment	-9.16478
▁ball	-9.16583
▁happy	-9.16613
▁continue	-9.16626
▁study	-9.16664
▁ka	-9.16672
▁problem	-9.16702
▁tv	-9.16793
ary	-9.16919
j	-9.16956
▁issue	-9.17074
▁senior	-9.17103
▁visit	-9.17115
▁worked	-9.17451
▁european	-9.17488
▁hotel	-9.17862
▁private	-9.1787
▁key	-9.17878
▁mar	-9.18096
ir	-9.18368
appeared	-9.18423
vi	-9.18559
▁crime	-9.18636
▁announced	-9.18704
▁difficult	-9.18789
▁above	-9.18809
▁premier	-9.1892
▁everyone	-9.18938
▁blood	-9.18945
▁brother	-9.19175
▁turn	-9.19299
▁victims	-9.1934
▁instead	-9.19352
▁brown	-9.19377
▁nine	-9.19391
▁george	-9.19421
▁recently	-9.19484
▁picture	-9.19514
▁serious	-9.19563
▁justice	-9.19879
▁stay	-9.19927
▁felt	-9.20119
ance	-9.20175
▁plan	-9.20235
▁secretary	-9.20411
▁particular	-9.20431
▁tour	-9.20695
▁break	-9.20868
▁low	-9.20882
▁similar	-9.20912
▁knew	-9.21025
▁21	-9.21226
▁agency	-9.21424
ig	-9.2145
▁pair	-9.21454
sa	-9.21692
▁services	-9.21837
di	-9.21886
▁capital	-9.22081
▁attorney	-9.2209
▁grand	-9.22098
▁test	-9.22233
4	-9.22248
▁showed	-9.22258
and	-9.22287
▁list	-9.22329
▁gun	-9.22367
▁flight	-9.22412
▁countries	-9.22456
▁airport	-9.22755
ut	-9.22759
▁safety	-9.22897
▁hearing	-9.23151
▁australia	-9.23163
off	-9.23229
▁bring	-9.2324
▁france	-9.23383
▁french	-9.23641
ren	-9.23936
han	-9.24008
▁decided	-9.24157
▁anyone	-9.24172
pa	-9.24238
▁california	-9.24343
▁running	-9.24356
▁search	-9.24372
▁main	-9.24374
▁anti	-9.24398
ak	-9.24452
▁view	-9.24459
▁wrong	-9.24489
▁looked	-9.24522
▁mc	-9.24578
▁24	-9.24718
▁admitted	-9.24737
▁chance	-9.24926
▁single	-9.25125
▁situation	-9.25202
▁condition	-9.25243
▁act	-9.25321
▁potential	-9.25345
bi	-9.25508
▁experience	-9.25655
▁brought	-9.25731
ft	-9.25842
▁girls	-9.25889
ver	-9.25996
▁means	-9.26088
▁labour	-9.26298
▁families	-9.26477
ger	-9.2669
▁prince	-9.26748
▁rather	-9.2675
▁guilty	-9.26793
▁caused	-9.26805
▁seem	-9.26884
▁level	-9.27142
▁mail	-9.27183
▁forced	-9.27199
▁provide	-9.27303
▁thousands	-9.27404
▁executive	-9.2741
▁huge	-9.27419
▁photo	-9.27456
▁dog	-9.275
▁problems	-9.27606
▁plans	-9.27672
▁account	-9.27783
▁paid	-9.27969
▁include	-9.28024
▁disease	-9.28139
lsb	-9.28218
6	-9.28327
▁shooting	-9.28374
▁middle	-9.28718
▁posted	-9.28835
men	-9.28859
▁2009	-9.28922
▁personal	-9.28949
day	-9.29055
rsb	-9.29108
red	-9.29169
▁forces	-9.29178
▁hands	-9.29229
▁claim	-9.29411
ka	-9.29521
um	-9.29745
▁cause	-9.30062
▁suspect	-9.30091
▁music	-9.3016
▁themselves	-9.30232
▁moved	-9.30295
▁member	-9.30344
▁price	-9.3047
pi	-9.3073
▁popular	-9.30806
ny	-9.31015
ee	-9.31484
7	-9.31491
▁sexual	-9.31511
▁king	-9.31526
▁stand	-9.31529
▁weekend	-9.31575
▁form	-9.31627
00	-9.31795
▁latest	-9.31976
▁san	-9.3214
▁round	-9.32143
▁fear	-9.32354
▁battle	-9.32381
▁relationship	-9.324
▁meeting	-9.32444
▁trust	-9.32468
▁remains	-9.3256
▁student	-9.3273
▁property	-9.32787
▁suffered	-9.32836
▁based	-9.32933
▁europe	-9.33136
▁actually	-9.33165
▁image	-9.33302
▁question	-9.3333
za	-9.3373
▁current	-9.33826
▁ten	-9.33848
▁college	-9.33875
▁el	-9.34009
▁policy	-9.34102
▁22	-9.34188
▁married	-9.34341
▁chelsea	-9.3436
▁needed	-9.34464
▁wo	-9.34488
▁host	-9.3449
▁whole	-9.34624
▁comment	-9.34632
▁gone	-9.34705
▁allegedly	-9.34749
▁allowed	-9.34825
▁cases	-9.34986
▁2008	-9.35085
ow	-9.35183
▁abuse	-9.35302
▁currently	-9.35344
ler	-9.35364
▁failed	-9.35378
▁talk	-9.35457
gg	-9.35489
▁dis	-9.35541
▁coach	-9.35566
▁workers	-9.35664
▁program	-9.35766
▁model	-9.35779
▁gold	-9.35899
▁stage	-9.35911
▁financial	-9.36028
▁class	-9.36148
▁makes	-9.36295
▁nation	-9.36417
▁violence	-9.3659
om	-9.36596
▁idea	-9.36653
▁leaving	-9.36656
▁bo	-9.36943
▁liverpool	-9.36955
▁union	-9.37139
▁message	-9.37162
▁pressure	-9.37268
▁ba	-9.37428
▁doctors	-9.37536
▁hair	-9.37747
▁alleged	-9.3776
of	-9.37764
▁discovered	-9.37838
▁position	-9.37846
▁po	-9.3791
▁trip	-9.37926
ated	-9.38056
▁charge	-9.381
▁island	-9.38107
▁arrived	-9.38186
▁billion	-9.38211
▁missing	-9.38343
▁plane	-9.3838
ten	-9.38531
▁patients	-9.39025
▁points	-9.39038
▁blue	-9.39048
▁project	-9.39077
▁speaking	-9.39107
quite	-9.39117
▁h	-9.39274
▁central	-9.39385
ze	-9.39419
▁23	-9.39464
▁ho	-9.3948
▁meet	-9.39519
ster	-9.39568
8	-9.39573
ped	-9.39575
▁percent	-9.39621
kept	-9.39643
▁average	-9.39826
bo	-9.39924
▁sun	-9.40116
▁matter	-9.40122
▁named	-9.40212
▁cameron	-9.40222
our	-9.40273
▁economic	-9.40319
ac	-9.40322
▁access	-9.40369
▁period	-9.40373
▁store	-9.40691
▁total	-9.40801
▁army	-9.41102
▁hu	-9.41142
▁buy	-9.41204
▁28	-9.41224
▁sports	-9.41352
▁drive	-9.41466
▁release	-9.41659
▁smith	-9.41679
lan	-9.41815
he	-9.41894
▁coast	-9.42221
ab	-9.42301
▁available	-9.42465
▁o	-9.42766
▁door	-9.42799
▁sister	-9.42875
▁africa	-9.42902
▁criminal	-9.42919
ors	-9.42986
▁leading	-9.43183
▁assault	-9.4334
▁crash	-9.43382
▁cross	-9.43909
▁issues	-9.43957
▁mind	-9.43978
▁du	-9.44035
▁gas	-9.44055
▁district	-9.44091
▁previous	-9.44211
▁border	-9.4431
▁secret	-9.44327
▁firm	-9.44335
ang	-9.44365
▁goals	-9.44368
au	-9.44405
ford	-9.44406
▁art	-9.44445
op	-9.44522
▁mid	-9.44567
▁born	-9.44607
qui	-9.44631
va	-9.44737
▁injuries	-9.44774
▁longer	-9.44791
▁helped	-9.44812
the	-9.44921
▁understand	-9.44962
ew	-9.44975
▁lu	-9.45068
▁fall	-9.45096
▁ko	-9.45138
ah	-9.4535
▁looks	-9.45357
vo	-9.45387
▁christmas	-9.45423
▁worth	-9.45651
▁russia	-9.45659
▁remain	-9.45661
▁driving	-9.45662
▁queen	-9.4587
ell	-9.45958
▁driver	-9.45977
▁killing	-9.45993
▁attacks	-9.46012
▁em	-9.46038
▁bbc	-9.46047
▁step	-9.46066
▁brand	-9.46181
▁increase	-9.46186
▁apple	-9.4634
▁russian	-9.46531
side	-9.46563
▁super	-9.46611
▁interest	-9.46614
▁li	-9.46634
▁impact	-9.46663
▁wearing	-9.46676
▁conference	-9.46697
▁sign	-9.46879
▁success	-9.47009
▁vote	-9.47033
▁images	-9.47068
▁election	-9.47134
▁wait	-9.4714
▁internet	-9.47141
▁iraq	-9.47248
▁needs	-9.47254
▁60	-9.47524
▁region	-9.47578
▁camera	-9.47633
▁attempt	-9.47715
▁sha	-9.47716
▁marriage	-9.47767
▁damage	-9.47886
▁syria	-9.47933
fa	-9.48123
▁data	-9.48153
▁avoid	-9.48213
▁storm	-9.48348
▁app	-9.48352
▁response	-9.48399
ph	-9.48454
▁fell	-9.48507
pe	-9.48525
▁beach	-9.48538
▁protect	-9.48562
▁rock	-9.48634
0,000	-9.48683
▁fine	-9.48703
▁caught	-9.48773
▁pictures	-9.48918
▁self	-9.49014
▁drugs	-9.49019
▁accident	-9.49061
▁biggest	-9.4911
ism	-9.49166
▁committee	-9.49186
▁ask	-9.49252
▁english	-9.49261
▁sentence	-9.49279
▁walk	-9.49307
▁source	-9.49401
ning	-9.49444
sen	-9.49505
▁cover	-9.49626
▁confirmed	-9.49646
▁lo	-9.49661
▁weight	-9.49683
▁injury	-9.49919
one	-9.4992
▁land	-9.49943
▁included	-9.50098
▁26	-9.50167
▁letter	-9.50363
▁operation	-9.50408
bb	-9.50485
▁continued	-9.50494
▁kids	-9.50519
▁share	-9.50521
gan	-9.50522
ud	-9.50533
▁range	-9.50635
▁hundreds	-9.5072
ure	-9.50812
od	-9.50891
▁challenge	-9.51088
▁female	-9.51198
▁non	-9.51207
▁global	-9.51276
▁areas	-9.51356
▁returned	-9.51414
▁hall	-9.51427
▁track	-9.51449
▁offer	-9.51463
▁leaders	-9.51482
▁create	-9.51546
▁river	-9.51604
▁hold	-9.51617
▁martin	-9.51664
▁victory	-9.51767
▁reason	-9.52047
▁ban	-9.52047
▁australian	-9.52064
▁defense	-9.52127
▁chris	-9.52256
ett	-9.52283
field	-9.5237
▁poor	-9.52518
▁groups	-9.52621
▁companies	-9.52628
▁probably	-9.52667
▁finally	-9.52851
▁residents	-9.53032
▁eye	-9.5331
▁oil	-9.53347
▁loss	-9.53467
▁wants	-9.53525
▁appeal	-9.53537
▁injured	-9.53619
▁photos	-9.53623
▁focus	-9.53898
cl	-9.53992
▁arrest	-9.54014
▁previously	-9.54104
▁contact	-9.54175
▁beat	-9.5429
▁giving	-9.54316
▁peter	-9.54508
▁quickly	-9.54525
ja	-9.5459
▁carried	-9.54634
▁brain	-9.54655
▁expect	-9.5467
▁train	-9.547
▁cash	-9.54715
▁review	-9.54723
▁either	-9.54752
ions	-9.54771
▁vi	-9.54887
▁j	-9.55017
▁page	-9.55039
▁ben	-9.55064
mm	-9.55108
con	-9.55171
▁29	-9.55315
▁created	-9.55552
▁weather	-9.55791
▁network	-9.55917
all	-9.55959
▁allow	-9.55972
▁administration	-9.56032
lu	-9.56044
▁spot	-9.56068
▁don	-9.56195
ff	-9.56249
▁experts	-9.56252
▁energy	-9.56638
well	-9.56676
▁wall	-9.56676
ise	-9.56803
▁feet	-9.56826
▁safe	-9.56892
ker	-9.56987
▁florida	-9.57045
cu	-9.57048
▁immediately	-9.57188
▁sold	-9.57263
▁technology	-9.57289
mi	-9.57441
▁questions	-9.57532
▁rise	-9.57815
▁industry	-9.58066
tra	-9.58231
▁sir	-9.58266
▁ran	-9.5854
▁fashion	-9.58547
▁deep	-9.58556
based	-9.58591
▁famous	-9.58643
while	-9.58663
▁civil	-9.58791
▁fighting	-9.58854
▁takes	-9.58908
▁aid	-9.58982
▁ta	-9.58985
▁sky	-9.58986
▁bed	-9.58989
▁details	-9.58991
▁attention	-9.59016
ea	-9.59018
▁27	-9.59043
▁present	-9.59112
▁build	-9.59465
▁spend	-9.59472
▁spoke	-9.59585
▁contain	-9.59633
▁african	-9.5966
▁williams	-9.59692
▁birth	-9.59877
▁save	-9.59912
▁launched	-9.59915
▁contract	-9.59921
▁floor	-9.60063
▁happen	-9.60089
▁emergency	-9.60144
bu	-9.60313
▁pa	-9.60423
▁especially	-9.60436
king	-9.60613
▁base	-9.60785
▁pick	-9.60827
ised	-9.61111
▁words	-9.61149
ified	-9.61211
▁vehicle	-9.61267
▁crown	-9.61397
▁animal	-9.61479
▁speed	-9.61526
kin	-9.61561
▁users	-9.61638
▁results	-9.61643
▁professional	-9.61651
▁performance	-9.61672
ron	-9.61693
▁warned	-9.618
▁launch	-9.61811
▁amount	-9.61871
let	-9.61952
▁comments	-9.6198
▁holiday	-9.61993
▁mis	-9.61994
▁goes	-9.62048
▁arm	-9.62105
▁clinton	-9.62348
▁raised	-9.62373
▁sense	-9.62381
▁germany	-9.62381
▁captain	-9.6248
▁shown	-9.6249
▁example	-9.6265
▁reporter	-9.62698
▁television	-9.62821
▁events	-9.62843
▁express	-9.6286
▁snow	-9.6294
▁champions	-9.62968
▁northern	-9.62994
ven	-9.63006
▁richard	-9.63019
ble	-9.63021
cy	-9.63114
▁size	-9.63159
▁title	-9.63175
back	-9.63176
▁republican	-9.63194
▁owner	-9.63201
▁joined	-9.63202
▁lack	-9.63282
▁extra	-9.63307
▁figures	-9.63514
mb	-9.63597
▁pain	-9.63679
▁else	-9.63681
ko	-9.63804
▁growing	-9.63806
▁consider	-9.63874
▁americans	-9.63979
▁conditions	-9.64097
▁chinese	-9.64122
▁seems	-9.64199
▁scotland	-9.64256
▁arsenal	-9.64428
▁fair	-9.64474
▁reach	-9.64598
▁calls	-9.64694
▁fit	-9.64775
end	-9.64849
▁ready	-9.64895
▁evening	-9.65017
▁bus	-9.65023
▁tough	-9.65037
▁remember	-9.65313
▁prevent	-9.65322
▁winning	-9.65455
ina	-9.65482
▁opening	-9.65509
ize	-9.65538
▁partner	-9.65565
▁professor	-9.65751
▁sch	-9.65752
▁lived	-9.65886
▁works	-9.65923
▁appear	-9.66086
▁defend	-9.66089
ov	-9.66104
▁village	-9.6615
▁2007	-9.66168
ier	-9.66174
▁bra	-9.66234
ized	-9.66239
▁hot	-9.66243
hy	-9.66258
▁education	-9.66373
▁customers	-9.66421
▁trade	-9.66444
▁doctor	-9.66512
ring	-9.6654
▁denied	-9.66553
▁towards	-9.66597
▁followed	-9.66667
▁simply	-9.66687
res	-9.66778
▁hour	-9.6678
▁kill	-9.66817
▁korea	-9.66829
▁kim	-9.66834
▁built	-9.66856
▁los	-9.66882
▁field	-9.66976
▁camp	-9.67
und	-9.67006
▁moving	-9.67136
▁speech	-9.67316
▁passengers	-9.67374
▁check	-9.67553
▁speak	-9.67754
ical	-9.67772
▁german	-9.67787
▁eventually	-9.67813
▁congress	-9.67814
▁development	-9.67832
▁investigators	-9.67939
ence	-9.6802
av	-9.68025
▁god	-9.68068
▁ended	-9.68145
▁address	-9.68151
▁spending	-9.68186
▁society	-9.68315
port	-9.684
▁opportunity	-9.68541
▁leg	-9.6856
▁crowd	-9.68607
▁iran	-9.68641
▁changed	-9.68676
▁text	-9.68679
ya	-9.68773
▁william	-9.68804
▁broke	-9.68977
▁texas	-9.68998
ex	-9.69059
ship	-9.69068
▁ha	-9.69084
▁common	-9.69126
▁newspaper	-9.69136
▁radio	-9.69149
pp	-9.69157
▁true	-9.69168
▁refused	-9.69235
▁johnson	-9.69297
▁mission	-9.69446
▁gu	-9.69507
▁believes	-9.69538
▁sell	-9.69548
ck	-9.69639
▁send	-9.69706
▁treat	-9.69905
▁follow	-9.6994
▁31	-9.70022
ot	-9.70033
len	-9.70034
▁push	-9.70127
▁dangerous	-9.70251
▁competition	-9.70477
▁gain	-9.70657
▁complete	-9.70711
ru	-9.70733
▁eat	-9.70735
▁throughout	-9.70897
▁adding	-9.70961
ran	-9.70984
▁ice	-9.71025
▁scored	-9.71046
▁sam	-9.71066
▁economy	-9.71223
▁card	-9.71235
▁cars	-9.71317
cher	-9.71416
▁higher	-9.71426
▁sometimes	-9.71554
▁alone	-9.71637
▁animals	-9.71662
▁stopped	-9.71666
berg	-9.71678
ite	-9.71684
▁hear	-9.71745
▁sale	-9.71785
mail	-9.71833
▁figure	-9.71853
▁appears	-9.71858
▁mass	-9.7187
▁pet	-9.71929
▁surgery	-9.71932
▁lower	-9.72035
▁researchers	-9.72212
ged	-9.72258
▁allegations	-9.72318
uk	-9.72328
▁rate	-9.72334
▁fellow	-9.72365
▁spread	-9.72451
ps	-9.72509
▁row	-9.72639
ack	-9.72794
▁answer	-9.72806
▁showing	-9.72861
tro	-9.72905
▁herself	-9.7302
▁afternoon	-9.73068
▁convicted	-9.7317
▁wear	-9.73302
▁bridge	-9.73333
▁celebrate	-9.73335
▁opened	-9.73363
▁sa	-9.73373
io	-9.73446
▁easy	-9.73499
▁movie	-9.73512
▁lee	-9.73553
▁troops	-9.73588
▁credit	-9.73642
nd	-9.73676
▁offered	-9.73799
▁association	-9.7382
▁prosecutors	-9.73882
50	-9.73951
▁pass	-9.73973
▁passed	-9.74053
▁ensure	-9.74073
▁fun	-9.74158
▁nearby	-9.7416
zi	-9.7421
▁compar	-9.74308
▁wedding	-9.74319
▁imp	-9.74436
over	-9.74647
▁earth	-9.7473
▁treated	-9.7475
▁voice	-9.74803
mu	-9.7481
▁raise	-9.74885
wood	-9.74983
lar	-9.74997
▁population	-9.74997
▁receive	-9.75021
▁protest	-9.75045
term	-9.75056
▁bought	-9.75142
▁sales	-9.75292
▁scientists	-9.75412
▁soldiers	-9.75435
▁jones	-9.75479
ib	-9.75576
▁cold	-9.75616
▁pretty	-9.75631
▁sport	-9.75656
▁jury	-9.75789
▁defeat	-9.75827
her	-9.75843
▁signed	-9.76054
aged	-9.76055
ned	-9.76112
▁da	-9.7626
▁boys	-9.76345
▁double	-9.76403
▁character	-9.76436
▁band	-9.76468
▁agreed	-9.765
▁lawyer	-9.76528
pc	-9.76683
▁join	-9.76762
▁efforts	-9.76819
▁style	-9.76875
▁older	-9.76892
hi	-9.76998
▁carry	-9.77092
▁skin	-9.77125
▁spring	-9.77169
▁jo	-9.77171
▁ps	-9.77268
▁learn	-9.77305
▁rose	-9.77352
▁pe	-9.77382
▁angeles	-9.77399
▁approach	-9.77474
mar	-9.77481
▁mor	-9.77493
▁calling	-9.77576
▁fe	-9.7758
▁respect	-9.77703
▁issued	-9.77761
▁mi	-9.77857
▁talking	-9.7799
qu	-9.78074
▁male	-9.7812
ick	-9.78289
ou	-9.78406
▁inter	-9.7843
▁date	-9.78452
▁warm	-9.78511
ins	-9.78576
▁supporters	-9.78645
▁effort	-9.78658
▁squad	-9.78666
▁alcohol	-9.78715
▁significant	-9.78751
▁subject	-9.78765
mon	-9.78793
▁regard	-9.78816
▁boss	-9.78836
▁crisis	-9.78867
▁lose	-9.79029
▁jobs	-9.79169
▁israel	-9.79191
▁target	-9.79205
considered	-9.79229
▁terms	-9.79252
▁isis	-9.79319
▁v	-9.79329
▁homes	-9.79356
▁weapons	-9.7963
▁changes	-9.79696
▁spain	-9.79715
▁completely	-9.79811
▁magazine	-9.79832
▁flat	-9.79835
▁fourth	-9.79894
▁jump	-9.79942
▁threat	-9.79971
▁served	-9.79975
▁fan	-9.80016
▁robert	-9.80094
▁afghanistan	-9.80139
▁concerns	-9.8023
▁eyes	-9.80253
▁beautiful	-9.80293
▁collection	-9.80382
▁dress	-9.80473
▁stone	-9.80496
▁footage	-9.80511
▁largest	-9.80548
▁poll	-9.80585
▁70	-9.80592
fer	-9.80678
▁jackson	-9.80723
q	-9.80766
light	-9.80799
▁content	-9.8086
▁wales	-9.80876
▁seeing	-9.80887
▁guard	-9.80914
▁costs	-9.80918
▁india	-9.80987
▁eu	-9.81021
▁western	-9.81097
▁mexico	-9.81325
▁lord	-9.8136
30	-9.81369
▁dark	-9.81474
▁southern	-9.81533
▁gay	-9.81627
ville	-9.81644
▁lake	-9.81678
▁screen	-9.8176
▁certain	-9.8194
head	-9.81941
▁35	-9.81962
▁version	-9.82056
▁apartment	-9.82067
▁holding	-9.82146
▁identified	-9.82221
ward	-9.8223
▁accept	-9.82269
tor	-9.82391
▁includes	-9.82452
▁va	-9.82479
▁chairman	-9.82549
tu	-9.8255
▁ship	-9.82599
ating	-9.82687
▁har	-9.82707
▁commission	-9.82714
▁museum	-9.82735
▁loved	-9.82754
▁emerged	-9.82877
▁natural	-9.82937
▁drink	-9.83038
▁normal	-9.83096
▁quarter	-9.83101
▁rules	-9.83262
ok	-9.8341
▁bid	-9.83431
▁pan	-9.83492
▁require	-9.83589
▁positive	-9.83687
▁mac	-9.83722
▁dogs	-9.83749
▁parts	-9.83825
▁sound	-9.83854
ney	-9.83867
▁serve	-9.83918
▁scott	-9.84003
▁table	-9.84047
▁unit	-9.84184
▁2006	-9.84231
ana	-9.84319
em	-9.84413
▁feeling	-9.84494
▁peace	-9.84579
▁original	-9.84654
▁andrew	-9.84791
▁nations	-9.8485
▁wild	-9.84864
▁winter	-9.84921
wa	-9.84924
▁striker	-9.85037
▁movement	-9.85092
▁display	-9.85299
▁ham	-9.85327
▁touch	-9.85374
▁independent	-9.85454
▁survey	-9.85508
▁draw	-9.85605
ki	-9.8561
▁aircraft	-9.85619
ev	-9.8565
▁telling	-9.85753
che	-9.85764
▁col	-9.85784
▁pull	-9.8579
ging	-9.8582
▁reporters	-9.85965
▁perfect	-9.85992
▁cat	-9.85993
▁sat	-9.86026
▁suffering	-9.86035
▁author	-9.86082
▁schools	-9.86102
▁twice	-9.86161
▁tu	-9.86189
▁fast	-9.86266
board	-9.86277
▁modern	-9.86323
▁madrid	-9.86431
▁itself	-9.86432
if	-9.86564
▁myself	-9.86595
▁christian	-9.86601
▁concerned	-9.86624
▁giant	-9.86662
▁walking	-9.86795
▁bush	-9.868
▁pulled	-9.86808
5,000	-9.8681
my	-9.86814
▁mobile	-9.86832
▁charity	-9.86871
ub	-9.8691
▁seat	-9.86954
▁google	-9.86978
▁majority	-9.87028
▁certainly	-9.87044
▁effect	-9.87051
▁shop	-9.87134
▁sort	-9.87197
▁rain	-9.87201
▁term	-9.87282
▁winner	-9.87341
▁bat	-9.87344
gra	-9.87368
▁sad	-9.874
▁islamic	-9.87435
▁successful	-9.87439
▁cook	-9.87518
▁managed	-9.87577
▁wi	-9.87577
mate	-9.87618
▁growth	-9.87734
hu	-9.87819
▁farm	-9.8786
▁removed	-9.87919
▁debate	-9.88021
▁describe	-9.88083
rick	-9.88126
▁entire	-9.88139
▁gang	-9.88184
▁doubt	-9.88193
▁rescue	-9.88225
gi	-9.88292
▁computer	-9.88318
▁32	-9.88532
▁perhaps	-9.88582
▁nuclear	-9.88583
▁messages	-9.88587
▁word	-9.8859
▁fund	-9.88613
▁paris	-9.88616
fe	-9.88628
▁annual	-9.88695
▁restaurant	-9.88815
▁concern	-9.88844
▁na	-9.88851
car	-9.88954
▁onto	-9.88961
nt	-9.89008
▁tim	-9.89074
▁,"	-9.89153
▁bag	-9.89212
▁traditional	-9.8923
▁thomas	-9.89254
▁90	-9.89402
▁penalty	-9.89535
▁stars	-9.89594
▁80	-9.89639
▁clearly	-9.8969
▁usually	-9.89705
▁develop	-9.89813
▁fox	-9.89847
▁45	-9.8994
ep	-9.9001
▁products	-9.90015
▁italy	-9.90023
ill	-9.9011
har	-9.90114
▁suggest	-9.90149
pl	-9.90201
▁responsible	-9.90218
▁nhs	-9.90229
iv	-9.90246
▁waiting	-9.90254
▁200	-9.9026
▁streets	-9.90293
▁levels	-9.90296
▁dream	-9.90308
we	-9.9034
dia	-9.90473
▁garden	-9.90488
▁reached	-9.90565
▁rare	-9.90588
▁daniel	-9.90783
▁wood	-9.90798
ify	-9.90811
▁sp	-9.90846
▁records	-9.9086
▁suicide	-9.90895
gen	-9.90955
▁asking	-9.9104
▁mental	-9.91072
▁written	-9.91138
▁harry	-9.91313
▁century	-9.91384
▁stock	-9.91427
▁ja	-9.9146
▁proud	-9.91495
▁watching	-9.91537
▁suggested	-9.91551
cal	-9.91593
▁pitch	-9.91641
▁clean	-9.91671
▁crew	-9.91677
ap	-9.91766
placed	-9.91783
▁faces	-9.91796
▁starting	-9.91812
▁fresh	-9.9187
▁block	-9.91935
▁foot	-9.91964
▁worst	-9.91985
uck	-9.9224
▁numbers	-9.9237
▁younger	-9.92389
▁mayor	-9.92455
▁nick	-9.9248
▁culture	-9.92564
▁hill	-9.92629
▁rep	-9.92677
▁box	-9.92713
▁decades	-9.92741
▁brazil	-9.92778
▁port	-9.9291
▁teacher	-9.92925
▁whom	-9.92953
mph	-9.92956
▁stadium	-9.92971
rk	-9.92978
▁reveal	-9.93136
▁count	-9.93152
▁intelligence	-9.93262
▁helping	-9.93313
gar	-9.93364
▁sand	-9.93411
▁standing	-9.93435
▁benefits	-9.93438
house	-9.93516
▁sleep	-9.93618
▁suit	-9.93618
ris	-9.93768
▁meant	-9.93777
ug	-9.93995
nes	-9.94001
▁individual	-9.94002
▁planned	-9.94097
▁photograph	-9.94128
▁shared	-9.94136
▁broken	-9.94154
▁warning	-9.94174
▁millions	-9.94177
▁programme	-9.94236
▁bomb	-9.94262
ping	-9.94356
▁democratic	-9.94392
month	-9.94433
▁straight	-9.94438
ez	-9.94488
▁defence	-9.945
▁singer	-9.9453
▁perform	-9.9463
▁lady	-9.94726
▁opinion	-9.94852
▁hat	-9.94973
jo	-9.94992
▁guy	-9.95007
▁minute	-9.95011
gate	-9.95091
▁organization	-9.95092
sta	-9.95101
▁struck	-9.9515
▁type	-9.95216
ach	-9.95272
▁closed	-9.95412
▁za	-9.95417
▁bond	-9.95456
▁becoming	-9.95521
▁bodies	-9.95585
fo	-9.95607
▁heavy	-9.95627
▁choice	-9.95642
▁required	-9.95657
▁specific	-9.95688
▁hop	-9.95739
▁loan	-9.95829
▁senate	-9.95939
▁armed	-9.95984
▁traffic	-9.961
▁cell	-9.96138
▁mailonline	-9.96227
▁opposition	-9.96288
ct	-9.96405
▁massive	-9.96428
ski	-9.9643
▁2015	-9.96485
▁immigration	-9.96529
▁dropped	-9.96536
▁flag	-9.96647
▁planning	-9.96787
ath	-9.96949
▁separate	-9.96976
▁worse	-9.97015
▁bay	-9.97059
▁welcome	-9.97135
▁beyond	-9.97195
▁features	-9.97242
▁sentenced	-9.97304
ably	-9.97317
▁bin	-9.97338
▁hurt	-9.97379
▁girlfriend	-9.97458
▁alongside	-9.97461
▁below	-9.975
▁die	-9.97569
▁fired	-9.97571
▁sitting	-9.97577
▁agreement	-9.97578
▁extremely	-9.97611
▁champion	-9.97651
▁thank	-9.97746
▁shortly	-9.97754
tan	-9.97826
ever	-9.97847
▁hopes	-9.97858
▁boat	-9.97862
▁carrying	-9.97889
▁ring	-9.97893
▁explained	-9.97913
▁maybe	-9.97983
▁ski	-9.98057
▁paper	-9.98057
▁appearance	-9.98174
▁illegal	-9.9819
▁strike	-9.98206
▁actions	-9.98214
▁villa	-9.9824
▁fly	-9.98291
▁runs	-9.98389
▁cap	-9.98402
▁del	-9.98463
▁actor	-9.9861
▁budget	-9.98726
▁prices	-9.98818
▁documents	-9.98845
▁governor	-9.9893
▁2005	-9.98933
tion	-9.98972
▁practice	-9.99009
▁channel	-9.99041
▁ru	-9.99042
▁aware	-9.99226
▁healthy	-9.993
▁square	-9.99364
99	-9.99397
▁provided	-9.99419
▁violent	-9.99531
▁le	-9.99574
▁fuel	-9.99576
▁ki	-9.99578
fra	-9.99596
▁web	-9.99735
▁limit	-9.99814
▁spark	-9.9991
▁yes	-10.0009
▁nor	-10.0009
val	-10.0012
pm	-10.0015
▁losing	-10.0017
▁barcelona	-10.0022
law	-10.0028
▁tournament	-10.0028
▁charles	-10.0028
▁request	-10.0034
▁bull	-10.0036
▁counter	-10.0037
ities	-10.0038
▁trouble	-10.0041
▁hi	-10.0044
▁harm	-10.0048
pt	-10.0052
▁italian	-10.0053
▁conduct	-10.0056
▁pool	-10.0066
▁patient	-10.0069
ek	-10.0072
▁investment	-10.0074
work	-10.0076
▁value	-10.0087
▁gi	-10.009
qua	-10.0091
▁file	-10.0101
▁highest	-10.0104
▁dec	-10.0107
▁severe	-10.0116
▁amazing	-10.0116
▁conservative	-10.0133
ip	-10.0138
app	-10.0142
su	-10.0143
▁fat	-10.0145
▁science	-10.0154
▁affect	-10.0161
▁jet	-10.0162
▁teenager	-10.0163
▁quality	-10.0167
▁truck	-10.0174
▁surface	-10.0186
pu	-10.0187
▁monitor	-10.0192
▁drop	-10.0215
▁protection	-10.0217
▁mal	-10.0226
▁wish	-10.0235
▁claiming	-10.0244
▁korean	-10.0255
▁cast	-10.0259
▁decade	-10.0269
▁joe	-10.0275
▁teams	-10.028
▁x	-10.0285
▁flying	-10.0286
▁benefit	-10.0288
▁steve	-10.0297
▁diet	-10.03
▁insisted	-10.0302
pin	-10.0303
chan	-10.0307
▁bear	-10.0313
▁mag	-10.0314
▁laws	-10.0325
▁attacked	-10.0334
lic	-10.0338
▁sydney	-10.034
▁attended	-10.0344
▁places	-10.0346
▁regular	-10.0349
like	-10.0351
▁seek	-10.0356
▁nature	-10.036
▁exchange	-10.0366
mel	-10.0368
▁lift	-10.0371
▁nice	-10.0376
▁putt	-10.0378
▁initially	-10.0378
▁signs	-10.0383
▁piece	-10.0385
▁captured	-10.0392
▁assistant	-10.0393
ition	-10.0394
▁kick	-10.0399
▁l	-10.0413
▁items	-10.0414
▁youth	-10.0415
▁alex	-10.0419
▁deputy	-10.0424
▁freedom	-10.0425
▁estate	-10.0429
ns	-10.0431
▁apparently	-10.0432
▁rape	-10.0435
▁reading	-10.0436
▁pakistan	-10.0436
▁parliament	-10.0443
fla	-10.0452
▁travell	-10.0464
ice	-10.047
▁thinking	-10.0472
▁heat	-10.0473
▁artist	-10.0474
▁committed	-10.0478
sur	-10.0487
▁debt	-10.049
▁add	-10.0502
▁map	-10.0509
▁conflict	-10.0516
▁deaths	-10.0528
vin	-10.0532
▁kate	-10.0535
▁mike	-10.0543
▁talks	-10.0543
uff	-10.0544
▁window	-10.0548
▁louis	-10.0558
▁mary	-10.056
▁photographer	-10.0563
▁via	-10.0567
▁facing	-10.0582
▁greater	-10.0584
▁gets	-10.0589
▁jack	-10.0592
▁ocean	-10.0595
▁palace	-10.0596
20	-10.0599
▁japan	-10.0602
▁muslim	-10.0611
▁scandal	-10.0615
▁learned	-10.062
▁bail	-10.0623
▁thanks	-10.0624
ane	-10.0629
fr	-10.0644
▁beginning	-10.0649
▁simple	-10.0655
▁terrorist	-10.0657
▁fbi	-10.0667
▁progress	-10.0667
▁tom	-10.0668
▁wide	-10.067
▁path	-10.0674
rie	-10.0683
▁su	-10.0696
▁sit	-10.0701
cri	-10.0705
▁pm	-10.0705
▁simon	-10.0709
▁begin	-10.0712
long	-10.0715
▁throw	-10.072
▁journey	-10.0722
▁tests	-10.0725
▁covered	-10.0725
▁protesters	-10.0729
▁ruled	-10.0731
hr	-10.0742
▁increased	-10.0749
▁management	-10.075
▁complex	-10.0763
▁pop	-10.0771
▁syrian	-10.0773
▁audience	-10.0776
▁bottom	-10.0776
▁spanish	-10.0777
▁absolutely	-10.0781
▁chi	-10.0786
▁ways	-10.0798
▁caus	-10.0801
▁bright	-10.0813
▁colour	-10.0813
▁device	-10.0819
:30	-10.0824
▁exist	-10.0841
▁names	-10.0842
▁custody	-10.0851
▁flow	-10.0851
▁filed	-10.0852
▁affected	-10.0873
▁award	-10.0874
▁stick	-10.0876
▁defender	-10.0877
ob	-10.0892
▁vice	-10.0895
▁bu	-10.0904
▁mad	-10.091
▁walked	-10.0916
▁foundation	-10.0917
▁chose	-10.0926
▁score	-10.0932
▁enforcement	-10.0933
▁mum	-10.0933
▁33	-10.0945
▁smoke	-10.0948
▁exactly	-10.0953
▁voters	-10.0956
▁silver	-10.096
▁continues	-10.0962
▁emotional	-10.0964
ng	-10.0965
▁explain	-10.0967
▁ju	-10.0971
▁ministry	-10.0981
▁bi	-10.0981
▁blame	-10.0988
▁physical	-10.0992
▁jersey	-10.0995
▁finding	-10.1003
▁grow	-10.1013
▁plant	-10.1013
▁bur	-10.1017
▁attend	-10.1018
▁improve	-10.1026
ties	-10.1027
▁wind	-10.1034
▁shoot	-10.1035
▁estimated	-10.1036
▁please	-10.1036
▁tru	-10.1037
▁birthday	-10.1038
▁fully	-10.1058
▁shock	-10.1068
▁controversial	-10.1071
▁multiple	-10.1071
▁eating	-10.1074
▁parties	-10.1075
▁upon	-10.1085
▁glass	-10.1092
▁critical	-10.1094
▁reality	-10.1094
wi	-10.1096
▁visitors	-10.1098
kh	-10.1105
br	-10.1105
ible	-10.1106
▁responsibility	-10.1108
▁catch	-10.1119
▁linked	-10.1124
air	-10.1127
▁pregnant	-10.1127
▁employees	-10.1132
eg	-10.1133
▁domestic	-10.1134
xi	-10.115
▁bell	-10.1152
▁dad	-10.1154
▁knows	-10.1157
ung	-10.1159
▁owners	-10.1165
down	-10.1167
▁tragic	-10.1169
▁planet	-10.117
▁advice	-10.1176
▁republicans	-10.118
▁remained	-10.1188
▁scar	-10.1189
▁frank	-10.1192
ens	-10.1198
▁virginia	-10.1202
▁discuss	-10.1203
▁tea	-10.1204
▁rule	-10.1205
▁powerful	-10.1216
▁article	-10.1218
tin	-10.122
▁writing	-10.1226
▁dan	-10.1229
▁missed	-10.1229
low	-10.123
▁finish	-10.1231
▁views	-10.1233
pri	-10.1235
ken	-10.1241
cc	-10.1244
▁connection	-10.1245
▁production	-10.1246
▁occurred	-10.1247
bs	-10.1248
▁struggle	-10.126
bar	-10.1266
▁dinner	-10.1268
ists	-10.1272
▁cool	-10.1282
▁ver	-10.1288
▁neck	-10.1291
▁danger	-10.1296
▁route	-10.1297
▁expert	-10.13
▁2004	-10.1305
▁sick	-10.1307
▁transport	-10.1308
▁reasons	-10.1311
▁spotted	-10.1313
▁rates	-10.1315
▁fish	-10.132
use	-10.133
gu	-10.1332
tal	-10.1334
▁eastern	-10.1337
▁highly	-10.1347
▁raid	-10.1347
▁slow	-10.1352
▁panel	-10.1353
istic	-10.1357
▁various	-10.136
▁secure	-10.1367
▁operations	-10.1372
▁tri	-10.1373
▁spokeswoman	-10.1375
▁ebola	-10.1382
hal	-10.1383
ay	-10.1388
hand	-10.139
▁ability	-10.1392
ther	-10.1393
▁memorial	-10.1403
▁direct	-10.141
▁failure	-10.1418
▁recovery	-10.1419
▁dar	-10.1421
▁par	-10.1422
▁picked	-10.143
ves	-10.143
char	-10.1433
▁matt	-10.1434
van	-10.1438
chi	-10.1439
bury	-10.1452
▁language	-10.1452
-2	-10.1454
▁addition	-10.1455
mit	-10.1455
▁lewis	-10.1455
▁pen	-10.1462
▁500	-10.1463
af	-10.1468
ric	-10.1477
▁wilson	-10.1477
▁active	-10.1481
▁song	-10.1482
ire	-10.1485
▁olympic	-10.149
▁net	-10.1494
▁seeking	-10.1498
▁arms	-10.1498
▁meaning	-10.1498
▁ruling	-10.1514
▁books	-10.1518
run	-10.152
set	-10.1522
▁medal	-10.1523
▁ireland	-10.1534
▁honor	-10.1537
▁quick	-10.1539
so	-10.1539
▁selling	-10.1541
▁measure	-10.1546
▁sub	-10.1562
bel	-10.1566
▁ceremony	-10.1592
▁favourite	-10.1592
ette	-10.1598
▁corner	-10.1599
▁maria	-10.1607
cop	-10.1609
▁drinking	-10.1613
▁behaviour	-10.1614
▁sheriff	-10.1614
▁ill	-10.1615
▁tweeted	-10.1616
▁boston	-10.1622
pr	-10.1624
▁prompt	-10.1629
fl	-10.1636
ious	-10.1638
▁paying	-10.1639
▁shape	-10.1644
cor	-10.165
▁crimes	-10.1653
▁sal	-10.1654
▁barack	-10.1668
▁prepared	-10.1672
▁environment	-10.1673
▁authority	-10.1676
▁visited	-10.1677
▁leadership	-10.1682
▁34	-10.1703
▁climb	-10.1703
▁deliver	-10.1706
▁confirm	-10.1708
▁lines	-10.171
vent	-10.1712
▁blow	-10.1712
▁regime	-10.1717
▁actress	-10.1717
▁pounds	-10.1726
▁influence	-10.1727
▁murray	-10.1747
▁none	-10.1753
▁cra	-10.1755
▁sources	-10.1757
▁taylor	-10.1762
▁pleaded	-10.1762
▁surprise	-10.1763
ao	-10.1767
gr	-10.1773
▁prove	-10.1782
▁midfielder	-10.1785
▁exercise	-10.1787
ano	-10.1791
▁confidence	-10.1792
▁ukraine	-10.1792
keeping	-10.1803
▁income	-10.1806
▁additional	-10.1814
ect	-10.1816
rn	-10.183
du	-10.1832
▁developed	-10.1833
▁wonder	-10.1833
og	-10.1848
▁institute	-10.1852
▁hollywood	-10.186
wal	-10.1862
▁reaction	-10.1868
▁standard	-10.1868
ji	-10.1874
▁rob	-10.1876
▁multi	-10.1888
hour	-10.1892
▁scoring	-10.1897
▁marine	-10.1899
▁indian	-10.1908
▁ride	-10.1911
▁stephen	-10.1913
▁produce	-10.1916
▁roll	-10.1922
▁golf	-10.1939
▁ryan	-10.1944
ched	-10.195
▁insurance	-10.195
mil	-10.1953
▁weigh	-10.1953
▁remove	-10.1953
▁offering	-10.1961
▁alive	-10.1964
▁hunt	-10.1964
▁location	-10.1966
▁attempted	-10.1976
▁pal	-10.1978
▁stress	-10.1981
▁wa	-10.1998
▁prosecutor	-10.1998
star	-10.1999
▁stuff	-10.2006
▁tribute	-10.2011
dic	-10.2016
▁prize	-10.2022
▁activity	-10.2034
▁master	-10.2034
▁determined	-10.2043
mas	-10.2048
▁clothes	-10.2057
ile	-10.2065
net	-10.2074
▁trump	-10.2075
▁romney	-10.208
▁cha	-10.2084
ino	-10.2091
▁dem	-10.2094
ong	-10.2099
▁36	-10.2104
▁sharp	-10.2112
▁finished	-10.2115
▁witness	-10.2119
▁politics	-10.2119
shire	-10.2119
▁wake	-10.2121
▁israeli	-10.2123
▁stretch	-10.2126
ky	-10.2127
▁ros	-10.2128
▁funeral	-10.2134
cro	-10.2142
▁wine	-10.2149
▁chicago	-10.215
▁bowl	-10.2153
▁steven	-10.2171
▁ultimate	-10.2173
ator	-10.218
bla	-10.2181
▁product	-10.2189
▁unusual	-10.2196
▁shocked	-10.221
▁hol	-10.2211
▁resort	-10.222
par	-10.222
▁breast	-10.2227
ade	-10.2229
▁boost	-10.2229
▁decide	-10.2232
▁guide	-10.2238
▁toward	-10.2242
▁investigating	-10.2243
▁machine	-10.2249
▁respond	-10.2254
▁faced	-10.2255
▁accounts	-10.2256
▁handed	-10.2257
tain	-10.2258
▁difference	-10.2265
▁hole	-10.2266
▁reform	-10.2267
▁guests	-10.2268
▁dance	-10.2272
rate	-10.2273
▁stories	-10.2274
ising	-10.2279
▁rich	-10.2279
gh	-10.2286
▁flu	-10.2288
ore	-10.2296
▁banks	-10.2298
▁lane	-10.2299
▁unique	-10.2306
top	-10.2308
▁suspended	-10.2309
gue	-10.233
▁pat	-10.2334
▁terror	-10.2343
▁commercial	-10.2345
▁stands	-10.2351
tes	-10.2356
sha	-10.236
zz	-10.236
▁religious	-10.2361
ries	-10.2362
▁illness	-10.2363
▁reduce	-10.2363
▁adopt	-10.2368
▁false	-10.2369
▁serving	-10.2373
▁setting	-10.2374
▁upset	-10.2378
▁chain	-10.2383
▁tragedy	-10.2385
▁turkey	-10.2385
▁trend	-10.2386
▁parent	-10.2386
▁designer	-10.2395
▁bri	-10.2401
ai	-10.2404
pen	-10.2405
▁measures	-10.2408
▁sight	-10.2421
▁escape	-10.2425
▁associat	-10.2427
bound	-10.2433
▁victoria	-10.2439
▁reflect	-10.2447
▁task	-10.245
▁material	-10.2458
▁motor	-10.2474
gy	-10.2492
▁democrats	-10.2497
▁beauty	-10.2505
don	-10.2505
▁standards	-10.2514
▁angry	-10.2529
▁cho	-10.253
▁pilot	-10.2531
▁print	-10.2532
lie	-10.2546
▁cor	-10.2546
▁classic	-10.255
▁responded	-10.2552
▁ke	-10.2556
▁cities	-10.2556
▁obviously	-10.2561
▁plot	-10.2562
▁ambulance	-10.2569
▁jordan	-10.2569
trick	-10.2569
▁banned	-10.257
▁clash	-10.2571
▁cruise	-10.2574
▁email	-10.2576
▁boyfriend	-10.2576
row	-10.2577
cam	-10.2577
▁demand	-10.2578
▁joint	-10.2584
▁counts	-10.2594
▁citizens	-10.2597
▁canada	-10.2599
▁amid	-10.2607
▁suffer	-10.2611
iz	-10.2611
▁lawyers	-10.2616
▁fifth	-10.2618
▁horse	-10.2621
war	-10.2632
▁flood	-10.2636
▁seriously	-10.265
▁aim	-10.265
▁protests	-10.2652
▁produced	-10.2653
oc	-10.2658
▁festival	-10.2658
pping	-10.2661
▁euro	-10.2661
▁faith	-10.2675
▁duty	-10.2686
▁1,000	-10.2686
ium	-10.2696
▁semi	-10.2711
▁agree	-10.2716
▁vehicles	-10.2718
▁seconds	-10.2729
stone	-10.2734
▁worker	-10.2738
▁resident	-10.2745
▁editor	-10.2747
▁iphone	-10.2749
▁chemical	-10.2757
▁province	-10.2758
▁maintain	-10.2762
▁shut	-10.2762
▁mountain	-10.2775
▁steps	-10.2775
▁directly	-10.2776
ik	-10.2778
▁enter	-10.278
▁jan	-10.281
ox	-10.2811
▁sites	-10.2815
▁sarah	-10.2817
tz	-10.2818
▁ku	-10.2828
▁gaal	-10.2834
▁failing	-10.2837
57	-10.2843
▁feature	-10.2845
▁kitchen	-10.2848
▁repeatedly	-10.2848
▁bas	-10.2858
▁retired	-10.2888
▁criticism	-10.2889
▁stood	-10.2898
▁obtain	-10.2914
51	-10.2916
▁lock	-10.293
▁georgia	-10.2931
▁scheduled	-10.2933
▁tony	-10.2933
▁supposed	-10.2934
▁tree	-10.294
▁offers	-10.2942
▁adult	-10.2948
▁note	-10.2954
born	-10.2955
▁witnesses	-10.2957
▁championship	-10.2958
town	-10.2961
▁virus	-10.2965
▁pack	-10.2974
▁surrounding	-10.2977
▁agent	-10.2978
ock	-10.2978
▁alert	-10.298
▁helicopter	-10.2981
▁killer	-10.2982
sk	-10.2987
▁spirit	-10.299
ria	-10.2992
▁fraud	-10.2998
▁brief	-10.2999
▁direction	-10.3012
▁primary	-10.3024
▁navy	-10.3024
▁broad	-10.3028
▁adam	-10.3039
lor	-10.3046
▁hopeful	-10.3046
▁threatened	-10.3049
▁session	-10.3052
▁historic	-10.3053
▁whatever	-10.3061
▁expensive	-10.3066
▁lawsuit	-10.3066
▁newcastle	-10.3074
▁pot	-10.308
▁transfer	-10.3082
▁identify	-10.31
▁imagine	-10.31
▁drivers	-10.3102
▁2016	-10.311
ag	-10.3117
▁knee	-10.3118
▁lucky	-10.3118
▁anger	-10.3127
cer	-10.3127
tag	-10.3131
▁activities	-10.3134
40	-10.3136
-3	-10.3141
▁colleagues	-10.3148
away	-10.3154
▁equipment	-10.316
▁photographs	-10.3163
ington	-10.317
▁legs	-10.3172
▁argument	-10.3178
▁plus	-10.3181
hood	-10.3185
▁climate	-10.3186
▁sorry	-10.3194
▁section	-10.3195
ction	-10.3201
lock	-10.3203
pur	-10.3223
ign	-10.3234
▁candidate	-10.3234
right	-10.3237
▁falling	-10.3249
▁incredible	-10.3251
▁limited	-10.3253
watched	-10.3259
era	-10.3268
▁worried	-10.3272
▁blog	-10.3275
▁status	-10.3281
▁passenger	-10.3287
▁predict	-10.3294
▁edge	-10.3297
for	-10.3311
▁wheel	-10.3312
▁related	-10.332
▁recorded	-10.3328
▁grave	-10.3336
▁businesses	-10.3338
ani	-10.3339
▁user	-10.3339
▁ram	-10.3343
style	-10.3351
▁struggling	-10.3359
▁lunch	-10.3359
66	-10.3359
ini	-10.3365
▁quiet	-10.3368
win	-10.3374
▁length	-10.3381
▁matches	-10.3393
▁carolina	-10.3394
▁qaeda	-10.3394
▁shopping	-10.3395
▁diagnosed	-10.3403
▁tottenham	-10.3403
▁princess	-10.3411
list	-10.3413
▁initial	-10.3413
58	-10.3414
▁mp	-10.3423
▁strength	-10.3424
▁auction	-10.3429
▁tower	-10.3433
dr	-10.3434
mates	-10.3439
▁supreme	-10.344
▁spa	-10.3441
▁agents	-10.3446
zo	-10.3449
mont	-10.3455
▁abu	-10.3455
▁disaster	-10.3456
▁prosecution	-10.346
press	-10.3463
▁babies	-10.3464
▁signing	-10.3479
▁anthony	-10.3482
▁scheme	-10.3482
▁conviction	-10.3483
foot	-10.3484
▁laugh	-10.349
▁0	-10.349
▁debut	-10.3493
▁airline	-10.3493
rant	-10.3496
▁grant	-10.3496
dale	-10.3499
▁300	-10.35
▁smart	-10.3504
▁dispute	-10.3509
stra	-10.351
▁individuals	-10.3512
▁rac	-10.3519
▁command	-10.3521
▁depend	-10.3523
10	-10.3527
spoken	-10.3529
▁2003	-10.3541
kar	-10.3544
▁punch	-10.3553
-1	-10.3556
▁lay	-10.3558
▁moments	-10.3563
15	-10.3569
▁rooney	-10.358
▁shift	-10.3586
wick	-10.3587
▁airlines	-10.3588
ju	-10.3588
▁targeted	-10.3594
▁phil	-10.3601
point	-10.3608
▁factor	-10.3609
▁zone	-10.3618
▁declined	-10.3618
▁invest	-10.362
▁dressed	-10.3622
▁truth	-10.3622
▁disorder	-10.3625
▁relatives	-10.3646
62	-10.3648
▁everybody	-10.3652
▁originally	-10.3653
▁encourage	-10.3657
▁prior	-10.3659
▁advantage	-10.3661
▁operate	-10.3664
▁keen	-10.3669
▁coalition	-10.3679
▁brothers	-10.3686
aw	-10.3687
▁balance	-10.3689
▁militants	-10.369
▁mcc	-10.3691
▁cambridge	-10.3694
▁extreme	-10.3698
▁dozens	-10.3699
▁write	-10.37
▁regularly	-10.3702
▁declared	-10.3705
▁definitely	-10.3706
▁tall	-10.3706
sex	-10.3707
fu	-10.3714
▁housing	-10.3715
▁roof	-10.3716
coming	-10.3719
▁luxury	-10.3724
▁abc	-10.373
▁returning	-10.3733
▁entered	-10.3738
▁solution	-10.3742
▁talent	-10.3744
▁rising	-10.3752
▁episode	-10.376
▁organisation	-10.3763
▁jud	-10.377
▁tend	-10.3775
art	-10.3776
cent	-10.3779
▁overall	-10.378
▁ali	-10.3781
▁rod	-10.3783
▁jay	-10.3788
ston	-10.379
▁rival	-10.3795
lis	-10.3797
▁kennedy	-10.3807
mann	-10.3809
▁kelly	-10.3817
▁critics	-10.3819
▁jose	-10.382
▁arab	-10.382
01	-10.3823
▁grew	-10.3828
▁pushed	-10.383
▁42	-10.3832
▁shots	-10.3835
▁temperatures	-10.3838
shaw	-10.3842
▁fears	-10.3845
▁robb	-10.3852
▁mon	-10.3859
▁forest	-10.386
▁cuts	-10.3867
ification	-10.3874
▁auto	-10.3874
▁davis	-10.388
▁moon	-10.3894
▁inquiry	-10.3898
▁shout	-10.3899
▁egypt	-10.3905
itt	-10.3907
▁je	-10.3912
▁38	-10.3913
▁kit	-10.3913
▁supply	-10.3916
▁valley	-10.3917
ologist	-10.3925
▁studies	-10.3939
▁generation	-10.394
zy	-10.3941
▁recruit	-10.3944
rus	-10.3945
▁bro	-10.3948
▁split	-10.3951
▁assist	-10.3953
▁weapon	-10.3953
▁neighborhood	-10.3954
berry	-10.3959
▁questioned	-10.3959
▁code	-10.3962
▁necessary	-10.3963
▁inspired	-10.3963
▁sw	-10.3964
bringing	-10.3964
▁2001	-10.3966
▁soldier	-10.3974
cha	-10.3977
▁effective	-10.3986
▁tiny	-10.4003
▁adults	-10.4009
gov	-10.4009
▁disc	-10.4013
▁exam	-10.4015
▁para	-10.4016
▁morgan	-10.402
hold	-10.4021
burg	-10.4027
▁wing	-10.4027
▁bedroom	-10.4029
▁possession	-10.4032
▁notice	-10.4038
▁fill	-10.4047
▁kevin	-10.4047
wore	-10.4048
volving	-10.4055
▁fur	-10.4056
▁circumstances	-10.4058
▁sen	-10.406
▁larger	-10.4066
▁hart	-10.4066
▁producer	-10.4069
▁wounded	-10.4072
▁announcement	-10.4076
▁scan	-10.4078
▁journal	-10.4085
▁acting	-10.4089
▁alternative	-10.4094
▁miliband	-10.4094
▁videos	-10.4094
▁joke	-10.4094
▁ceo	-10.4098
lia	-10.4102
▁cur	-10.4105
allowing	-10.4109
▁completed	-10.411
3,000	-10.4131
▁youtube	-10.4131
▁memory	-10.4132
12	-10.4134
▁cru	-10.4141
▁ferguson	-10.4141
▁apart	-10.4147
▁celebration	-10.4152
▁background	-10.4153
▁glo	-10.4153
▁document	-10.4154
▁37	-10.4161
▁tory	-10.4164
▁uses	-10.4167
▁lib	-10.4168
▁sugar	-10.418
▁systems	-10.4185
▁confident	-10.4187
▁infection	-10.4188
▁skills	-10.419
ei	-10.4194
ari	-10.4195
▁deadly	-10.4197
▁knife	-10.4217
▁brutal	-10.4217
hill	-10.4221
▁shell	-10.4228
▁2000	-10.423
▁palestinian	-10.4235
▁44	-10.4238
▁broadcast	-10.4241
▁pra	-10.4243
fin	-10.4245
▁funds	-10.4245
lam	-10.4252
▁destroyed	-10.4252
ability	-10.4256
▁chair	-10.4258
▁bigger	-10.4262
▁earn	-10.4264
▁celebrity	-10.4265
▁bob	-10.4266
▁bird	-10.4269
▁sending	-10.427
rop	-10.4275
half	-10.4288
▁stabb	-10.429
flo	-10.4293
▁experienced	-10.4304
ball	-10.4305
ery	-10.4306
▁learning	-10.4306
rum	-10.4311
eb	-10.4322
▁choose	-10.4332
▁saudi	-10.4332
ative	-10.4337
▁miller	-10.4345
▁continu	-10.4347
▁conversation	-10.4348
▁purpose	-10.4351
▁suggests	-10.4356
tv	-10.4369
▁inspector	-10.4371
▁mom	-10.4371
▁yellow	-10.438
▁drove	-10.4387
▁presence	-10.439
een	-10.4396
rc	-10.4405
▁rush	-10.441
ray	-10.4411
▁calm	-10.4421
▁engine	-10.443
▁scale	-10.4437
▁fo	-10.4444
rin	-10.4449
▁unlikely	-10.445
▁introduced	-10.445
▁surveillance	-10.4458
▁plea	-10.4461
▁2002	-10.4462
▁devices	-10.4464
rr	-10.4467
ridge	-10.4471
vis	-10.4475
▁recommend	-10.4483
▁easily	-10.4487
▁miami	-10.4488
minute	-10.4489
▁option	-10.449
▁urged	-10.4491
▁effects	-10.4491
▁jean	-10.4492
▁increasingly	-10.4492
▁symptoms	-10.4497
▁minor	-10.45
▁fighters	-10.4505
▁milk	-10.4506
▁providing	-10.4507
▁strip	-10.451
▁yorkshire	-10.451
▁bike	-10.4511
nne	-10.4515
▁plastic	-10.4517
eu	-10.4523
▁receiving	-10.4526
▁verdict	-10.4526
▁ear	-10.4537
▁bor	-10.4542
▁rough	-10.4548
lb	-10.456
▁blast	-10.4567
▁awards	-10.4568
▁che	-10.4594
ide	-10.4596
▁jim	-10.4597
▁organ	-10.4597
sp	-10.4603
▁instagram	-10.4605
63	-10.4606
77	-10.4609
▁taliban	-10.4615
▁condemn	-10.4615
▁album	-10.4615
▁division	-10.4616
driven	-10.4616
▁breaking	-10.4617
pel	-10.4624
▁changing	-10.4625
▁gar	-10.4626
wan	-10.4628
kha	-10.463
▁cloud	-10.4636
▁metal	-10.4636
▁opt	-10.4637
▁funding	-10.4639
▁holds	-10.4643
fil	-10.4656
95	-10.4659
▁combat	-10.4671
▁determine	-10.4673
▁detect	-10.4674
uc	-10.4674
▁bath	-10.4674
▁yourself	-10.4675
▁eric	-10.4676
▁39	-10.4678
▁flights	-10.4679
▁profile	-10.4684
yard	-10.4685
water	-10.4688
▁stores	-10.4694
ple	-10.4694
▁structure	-10.4695
▁tie	-10.4702
▁tre	-10.4703
▁marijuana	-10.4705
oo	-10.4709
▁tan	-10.4711
fire	-10.4712
14	-10.4713
▁mine	-10.4713
▁switch	-10.4719
▁shoulder	-10.472
▁studio	-10.473
▁link	-10.4731
▁fled	-10.4734
▁sweet	-10.4734
▁breach	-10.4734
▁fruit	-10.4735
▁crack	-10.4735
▁fatal	-10.4745
▁southampton	-10.4745
▁closer	-10.4755
▁duchess	-10.4755
▁clubs	-10.4755
▁mouth	-10.476
▁correct	-10.4765
▁attempts	-10.4765
▁scottish	-10.4767
▁clar	-10.4771
▁distance	-10.4775
▁japanese	-10.4775
▁putin	-10.4777
▁elections	-10.4777
▁application	-10.4785
▁seal	-10.4791
ita	-10.4791
▁gre	-10.4791
▁tweet	-10.4797
▁nurse	-10.4799
▁guys	-10.4807
▁accepted	-10.4808
▁feels	-10.4809
▁bottle	-10.481
cry	-10.4812
▁mill	-10.4815
▁barr	-10.4823
▁senator	-10.4826
▁allen	-10.4829
ira	-10.4831
▁expand	-10.4836
▁knowledge	-10.4836
tas	-10.4842
▁greatest	-10.485
cut	-10.4852
▁shirt	-10.4854
▁prop	-10.4855
ending	-10.486
▁cameras	-10.4867
▁clip	-10.4867
▁tight	-10.4871
▁veteran	-10.4872
▁suspects	-10.4872
▁rent	-10.4874
▁relations	-10.4876
▁engineer	-10.4879
▁guns	-10.488
▁republic	-10.4884
▁affairs	-10.4884
▁communities	-10.4887
ison	-10.4895
▁proved	-10.4896
▁sought	-10.4897
▁hate	-10.4902
aries	-10.4908
▁43	-10.4912
▁dating	-10.4916
▁relax	-10.4917
▁fallen	-10.4919
▁undergo	-10.4927
▁mexican	-10.4928
▁argued	-10.4929
▁48	-10.493
lip	-10.493
▁taste	-10.4932
85	-10.4933
▁focused	-10.4934
hen	-10.4947
sis	-10.4952
▁routine	-10.4958
▁reserve	-10.4959
▁41	-10.496
▁fu	-10.4964
▁permanent	-10.4969
▁hay	-10.4976
▁anniversary	-10.4979
mus	-10.4981
▁pieces	-10.4981
turning	-10.4982
59	-10.4988
▁understood	-10.4989
▁complaint	-10.499
25	-10.4991
▁stolen	-10.4994
tel	-10.4998
▁policies	-10.4999
▁happening	-10.5
▁advance	-10.5008
▁wil	-10.5009
▁teachers	-10.5009
▁models	-10.5015
▁contributed	-10.5019
▁zealand	-10.502
▁blind	-10.502
▁plays	-10.5022
▁located	-10.5025
load	-10.5031
▁75	-10.5034
room	-10.5035
▁nobody	-10.5051
▁deeply	-10.5051
▁1990	-10.5053
▁finger	-10.5055
▁pla	-10.5056
yn	-10.5057
▁mostly	-10.5059
▁facility	-10.5061
▁fix	-10.5062
▁messi	-10.5063
▁bullet	-10.5075
▁household	-10.5076
burn	-10.508
▁saved	-10.5085
▁collect	-10.5087
▁harris	-10.5089
▁ongoing	-10.5094
final	-10.5097
▁smile	-10.5098
▁interested	-10.5099
▁pension	-10.5101
▁relief	-10.5104
▁prepare	-10.5111
▁capture	-10.5113
▁cricket	-10.5113
▁numero	-10.5117
▁library	-10.5124
▁basis	-10.5127
▁indeed	-10.5129
los	-10.5133
▁surprised	-10.5144
▁explosion	-10.5145
▁favorite	-10.5145
qual	-10.5148
▁react	-10.5154
▁coffee	-10.5155
▁negative	-10.5155
lum	-10.5157
ott	-10.5165
▁winds	-10.5166
▁teen	-10.5169
▁damaged	-10.5175
4,000	-10.5176
▁gym	-10.5178
▁mini	-10.5192
▁surround	-10.5193
▁earned	-10.5193
▁islam	-10.5196
▁vulnerable	-10.5197
▁vast	-10.5197
hum	-10.5203
▁contacted	-10.5203
▁leaves	-10.5207
▁nbc	-10.5209
▁threats	-10.5214
▁busy	-10.5217
▁identity	-10.5218
▁dutch	-10.5218
▁smaller	-10.5219
▁medicine	-10.5229
vert	-10.5231
▁recovered	-10.524
▁salt	-10.524
▁windows	-10.5242
▁concert	-10.525
▁prospect	-10.5251
▁entertainment	-10.5251
ough	-10.5253
▁allows	-10.5254
▁buildings	-10.5256
▁survived	-10.5257
▁sides	-10.5258
▁possibility	-10.526
▁patrol	-10.5261
az	-10.5261
▁daughters	-10.5265
▁angel	-10.5266
▁tears	-10.5267
▁commit	-10.5267
▁arrival	-10.5271
je	-10.5278
▁heads	-10.5287
eli	-10.5288
▁tomorrow	-10.5292
▁nasa	-10.5293
67	-10.5293
▁affair	-10.5295
▁10,000	-10.5298
▁kid	-10.5298
▁tourists	-10.5299
▁academy	-10.5303
▁performed	-10.5303
▁pub	-10.5306
▁150	-10.5309
▁bombing	-10.5312
▁agencies	-10.5313
tter	-10.5316
▁willing	-10.5317
▁apply	-10.5322
stan	-10.5324
▁owned	-10.5325
worth	-10.5327
izing	-10.5328
▁inc	-10.5331
elli	-10.5336
more	-10.5339
▁filled	-10.5343
gram	-10.5351
▁viewers	-10.5351
eva	-10.5361
▁intended	-10.5361
▁rushed	-10.5362
▁rocket	-10.5362
poli	-10.5364
▁ray	-10.5365
▁wonderful	-10.5369
del	-10.5372
▁mistake	-10.5372
▁400	-10.5375
▁starr	-10.5377
▁joy	-10.5379
ella	-10.5388
▁plenty	-10.5388
▁specialist	-10.5388
ica	-10.5391
▁mps	-10.5392
▁happens	-10.5404
▁soft	-10.5406
▁tackle	-10.5407
▁flash	-10.5408
▁elizabeth	-10.541
▁liberal	-10.541
▁creat	-10.5411
▁writer	-10.5413
related	-10.5413
▁internal	-10.542
▁struggled	-10.5421
▁basic	-10.5423
▁chest	-10.5429
▁offensive	-10.5431
▁lying	-10.5431
▁tennis	-10.5432
▁spin	-10.5432
▁golden	-10.5433
▁desperate	-10.5436
pro	-10.5446
▁birmingham	-10.5453
▁inquest	-10.5453
▁immediate	-10.5457
▁causes	-10.5461
▁function	-10.5464
▁mount	-10.547
▁comfort	-10.5471
▁listen	-10.5473
▁evans	-10.5474
▁bow	-10.5476
▁duke	-10.5478
rd	-10.5479
▁jr	-10.5481
▁ambassador	-10.5485
▁appropriate	-10.5485
bone	-10.5487
american	-10.5494
▁zoo	-10.5497
▁65	-10.5497
▁complaints	-10.5499
▁kent	-10.5499
64	-10.5502
▁dna	-10.5505
▁matthew	-10.5507
▁suarez	-10.5507
▁feed	-10.5508
▁legislation	-10.5517
state	-10.552
wear	-10.5527
▁associate	-10.5528
▁catholic	-10.5528
▁species	-10.5528
▁iraqi	-10.5529
▁commissioner	-10.5533
▁conducted	-10.5534
▁execution	-10.5539
▁somebody	-10.5539
▁dollars	-10.5541
ual	-10.5541
▁widely	-10.5545
▁shocking	-10.5547
▁impressive	-10.5551
▁lit	-10.5551
▁jon	-10.5552
▁paint	-10.5556
▁privacy	-10.5561
▁honour	-10.5561
▁unless	-10.5568
▁shares	-10.5577
▁afghan	-10.5583
▁encounter	-10.5583
▁largely	-10.5584
▁client	-10.5591
ale	-10.5604
▁essential	-10.5605
▁henry	-10.5605
book	-10.5605
bra	-10.5607
▁clinic	-10.5609
▁lights	-10.561
▁stuck	-10.562
lea	-10.5621
▁intention	-10.5623
▁gary	-10.5624
▁landing	-10.5626
▁gap	-10.5631
▁promised	-10.5631
▁proposed	-10.5632
▁hamilton	-10.5638
part	-10.564
lf	-10.564
▁increasing	-10.5643
▁gro	-10.5652
▁noticed	-10.5654
▁moscow	-10.566
▁tonight	-10.5664
▁wave	-10.5667
▁ticket	-10.5669
▁snap	-10.5679
▁rap	-10.568
▁strategy	-10.5682
▁trail	-10.5682
▁possibl	-10.5685
▁decisions	-10.5687
ola	-10.5688
▁finance	-10.5693
▁vital	-10.5695
▁considering	-10.5699
▁featured	-10.5701
▁sector	-10.5704
▁formal	-10.5705
ash	-10.5709
▁commander	-10.571
▁hero	-10.5713
▁journalists	-10.5714
▁mix	-10.5714
▁strict	-10.5715
▁beating	-10.5718
▁anna	-10.5718
▁resources	-10.5725
▁revenue	-10.5726
▁fame	-10.5727
▁contest	-10.5727
▁discovery	-10.573
▁tam	-10.5732
▁gear	-10.5737
▁beaten	-10.5737
stein	-10.574
▁tiger	-10.576
▁delivered	-10.5773
▁tank	-10.5775
gli	-10.5778
▁atmosphere	-10.5781
▁string	-10.5788
▁cre	-10.5789
▁cheer	-10.5794
bed	-10.5795
68	-10.5799
▁55	-10.5799
▁asia	-10.58
lab	-10.5802
presented	-10.5812
▁behavior	-10.5815
ala	-10.5816
▁testing	-10.5821
▁neither	-10.5826
▁occasion	-10.5827
▁digital	-10.5827
grad	-10.583
▁films	-10.5837
▁mourin	-10.5837
▁spell	-10.5841
▁pink	-10.5845
▁shoes	-10.5851
▁scr	-10.5854
▁teenage	-10.5855
▁visiting	-10.586
▁painting	-10.5867
16	-10.5869
▁journalist	-10.5871
▁heavily	-10.5871
▁colorado	-10.5882
▁operating	-10.5883
▁anderson	-10.5885
▁height	-10.5889
▁findings	-10.5891
▁terrible	-10.5893
▁construction	-10.5894
▁bon	-10.5894
▁exclusive	-10.5894
week	-10.5894
▁options	-10.5895
18	-10.5898
ology	-10.5903
▁boast	-10.5905
ory	-10.5905
▁drama	-10.5905
▁cards	-10.5913
▁package	-10.5917
▁afford	-10.5924
▁honest	-10.5927
ena	-10.593
vor	-10.5931
▁walker	-10.5943
▁tar	-10.5944
▁knight	-10.5951
▁1980	-10.5952
lyn	-10.5956
tar	-10.5958
▁dramatic	-10.5961
▁ronaldo	-10.5965
▁46	-10.5976
47	-10.5981
▁publicly	-10.5983
▁color	-10.5985
▁worldwide	-10.5986
▁employee	-10.5987
▁occur	-10.5994
▁labor	-10.5996
▁brit	-10.5997
80	-10.5999
▁sum	-10.6
▁signal	-10.6013
▁cooper	-10.6018
▁meat	-10.6028
▁regional	-10.6033
▁presenter	-10.6036
▁gop	-10.6041
▁promote	-10.6042
▁comfortable	-10.6044
▁chances	-10.6045
▁everton	-10.6049
▁diego	-10.6055
▁alarm	-10.6059
6,000	-10.6061
▁irish	-10.6065
kins	-10.6067
ain	-10.607
▁plate	-10.6073
▁ohio	-10.6076
▁developing	-10.6078
▁leicester	-10.6087
▁goalkeeper	-10.6088
fall	-10.6089
eng	-10.6092
ima	-10.6095
▁vessel	-10.6098
▁diamond	-10.6098
▁sail	-10.6105
▁terrorism	-10.6105
▁stayed	-10.6111
▁gen	-10.6114
▁buying	-10.6114
▁mars	-10.612
▁purchase	-10.6122
▁alan	-10.6128
▁cells	-10.613
▁sponsor	-10.6132
▁suspicion	-10.6133
▁raf	-10.6133
▁rejected	-10.6133
▁excited	-10.6134
gin	-10.6138
▁dealing	-10.614
▁degree	-10.6145
▁rebels	-10.615
▁founder	-10.6156
▁atlanta	-10.6156
▁pledge	-10.6157
▁missile	-10.6159
▁dry	-10.616
nc	-10.6161
▁staying	-10.6163
▁def	-10.6163
▁native	-10.6163
▁michelle	-10.6168
▁passing	-10.6168
37	-10.6168
▁clegg	-10.6168
▁ii	-10.617
▁ok	-10.6171
ugh	-10.6172
▁nato	-10.6175
bn	-10.6176
yl	-10.6177
nce	-10.6178
▁forget	-10.6181
▁rat	-10.6181
metres	-10.6181
nar	-10.6183
▁mile	-10.6184
▁gathered	-10.619
▁investigate	-10.6192
▁challenges	-10.6193
▁yo	-10.6196
▁brave	-10.6201
▁fought	-10.6202
▁stunning	-10.6204
▁brian	-10.6205
▁detail	-10.6205
▁buri	-10.6205
▁sexually	-10.6206
▁letters	-10.6212
▁ancient	-10.6214
tial	-10.6215
17	-10.6219
▁impossible	-10.6226
▁technical	-10.6226
▁sterling	-10.6227
posed	-10.6229
awa	-10.6231
▁jane	-10.6246
maker	-10.6248
▁charlie	-10.6249
rated	-10.6252
▁thrown	-10.6266
▁detectives	-10.6267
ular	-10.6268
▁bio	-10.6275
▁commitment	-10.6275
▁fed	-10.6275
called	-10.6282
ture	-10.6283
▁aggressive	-10.6284
▁programs	-10.629
▁hang	-10.6291
▁remaining	-10.6293
▁divorce	-10.6297
▁pill	-10.6302
trac	-10.6305
▁swimming	-10.6308
▁shelter	-10.6308
ux	-10.6319
▁manhattan	-10.6319
▁trees	-10.6326
▁compete	-10.6326
"	-10.6331
,500	-10.6332
▁hoped	-10.6335
▁kiss	-10.6339
▁rd	-10.6342
▁tear	-10.6343
▁raising	-10.6343
▁pace	-10.6349
▁neighbor	-10.6352
▁error	-10.6355
▁shake	-10.6355
▁fake	-10.6356
ency	-10.6357
▁stream	-10.6366
▁remote	-10.6366
att	-10.6371
▁counsel	-10.6378
inch	-10.6388
▁libya	-10.639
▁controversy	-10.639
▁graham	-10.639
lon	-10.6393
▁burn	-10.6396
▁dismissed	-10.6398
▁100,000	-10.6398
▁oscar	-10.6402
▁analysis	-10.6403
▁chicken	-10.6404
▁phones	-10.6406
▁iranian	-10.6406
▁saint	-10.6414
▁crashed	-10.6415
▁coverage	-10.6418
▁incidents	-10.6418
▁seats	-10.6423
ila	-10.6425
▁inches	-10.6428
▁recall	-10.6432
▁assistance	-10.6439
graph	-10.6439
▁tickets	-10.644
gle	-10.6441
87	-10.6442
sky	-10.6443
▁wildlife	-10.645
▁horrific	-10.6452
sharing	-10.6458
▁reputation	-10.6461
▁hitting	-10.6462
bro	-10.6463
▁replaced	-10.6465
yan	-10.649
▁prefer	-10.65
uit	-10.6503
▁18-	-10.6506
▁joseph	-10.651
▁orange	-10.651
▁jen	-10.6513
ado	-10.6513
▁custom	-10.6516
▁campus	-10.6519
▁trace	-10.6521
▁pointed	-10.6521
▁hide	-10.6523
pac	-10.6527
▁rail	-10.6531
▁platform	-10.6533
act	-10.6535
▁observ	-10.6538
cat	-10.654
▁suddenly	-10.6543
▁olympics	-10.6545
▁supporting	-10.6546
wn	-10.6548
▁edward	-10.6549
▁fitness	-10.6549
ily	-10.655
▁heading	-10.6551
▁maryland	-10.6559
▁murdered	-10.6564
▁filmed	-10.6565
controlled	-10.6567
▁bathroom	-10.657
▁patrick	-10.6571
▁der	-10.6571
hir	-10.6574
nk	-10.6576
aimed	-10.6579
nan	-10.6582
trapped	-10.6589
▁sar	-10.66
▁cave	-10.6603
▁hid	-10.6605
threw	-10.6606
mic	-10.6606
▁usa	-10.6607
▁incredibl	-10.661
▁acts	-10.6615
▁bars	-10.6615
▁easier	-10.6618
▁grandmother	-10.6618
ich	-10.662
spi	-10.6629
▁massachusetts	-10.663
▁clothing	-10.6632
▁1970	-10.6632
▁adds	-10.6636
▁manage	-10.6637
▁belief	-10.6642
▁click	-10.6644
ku	-10.6655
▁stoke	-10.6656
▁lots	-10.6657
▁talked	-10.6662
▁smartphone	-10.6666
▁nfl	-10.667
▁mask	-10.6674
▁las	-10.6678
▁bags	-10.668
▁hip	-10.668
▁discover	-10.6682
▁lung	-10.6682
▁consumers	-10.6682
▁listed	-10.6684
chen	-10.6687
▁khan	-10.6689
▁closely	-10.6693
▁empty	-10.6703
▁woods	-10.6704
▁lifestyle	-10.6709
▁crystal	-10.6715
▁candidates	-10.6719
▁supported	-10.672
▁hack	-10.672
▁sustain	-10.6724
oz	-10.6727
play	-10.6729
▁marks	-10.6741
▁deserve	-10.6742
▁customer	-10.6745
▁kerry	-10.6745
▁argentina	-10.6752
▁desire	-10.6753
▁seized	-10.6753
▁dave	-10.6759
coll	-10.6761
▁shadow	-10.6764
▁object	-10.6768
▁neighbour	-10.6769
▁handle	-10.6772
org	-10.6778
▁properly	-10.6778
▁headed	-10.678
nie	-10.6783
▁costa	-10.6787
din	-10.679
▁electronic	-10.679
▁chocolate	-10.6801
▁elsewhere	-10.6801
cap	-10.6803
▁var	-10.6806
▁detective	-10.6808
ient	-10.6809
▁arizona	-10.6813
▁devastated	-10.6813
uch	-10.6813
21	-10.6816
bert	-10.6819
▁beijing	-10.6826
▁friendly	-10.6829
▁highway	-10.6829
bol	-10.6836
▁oh	-10.6842
▁hell	-10.6846
▁pad	-10.6851
▁compensation	-10.6851
▁referee	-10.6851
▁hook	-10.6853
▁doors	-10.6854
▁mess	-10.6863
▁chancellor	-10.6863
gui	-10.6865
▁attach	-10.6867
▁exposed	-10.687
▁affiliate	-10.6875
▁melbourne	-10.6875
▁grown	-10.688
tail	-10.6881
class	-10.6888
▁foster	-10.6889
▁abandoned	-10.69
▁gordon	-10.69
▁offences	-10.6902
▁reduced	-10.691
▁iron	-10.6912
▁watson	-10.6913
free	-10.6914
▁muscle	-10.6925
▁locked	-10.6928
educat	-10.6929
▁gill	-10.6929
▁pose	-10.6929
▁otherwise	-10.6931
▁referr	-10.6933
▁supermarket	-10.6938
▁label	-10.6938
zer	-10.6939
▁profit	-10.6941
ks	-10.6948
▁arrive	-10.6949
▁civilians	-10.695
▁hernandez	-10.695
▁interior	-10.695
▁software	-10.695
▁breath	-10.6956
▁5.	-10.6962
▁novel	-10.6963
iest	-10.6964
▁instruct	-10.6964
▁recording	-10.6967
▁houston	-10.6975
▁micro	-10.6979
▁worry	-10.6979
borough	-10.6983
▁2,000	-10.6985
arian	-10.6989
nam	-10.6989
made	-10.6993
▁knowing	-10.6995
▁depression	-10.7
▁environmental	-10.7001
▁involve	-10.7001
iness	-10.7005
▁organis	-10.7009
▁fantastic	-10.7013
▁uniform	-10.7013
▁legend	-10.7014
▁fail	-10.7025
▁mall	-10.7029
▁outbreak	-10.7032
▁invited	-10.7032
▁quit	-10.7033
▁granted	-10.7039
▁cabinet	-10.7039
▁activists	-10.704
▁remarks	-10.7041
▁drone	-10.7046
▁hospitals	-10.705
▁experiment	-10.7051
▁47	-10.7055
▁hong	-10.706
▁rid	-10.7064
▁wayne	-10.7065
▁speaker	-10.7067
▁sole	-10.7073
▁canadian	-10.7076
▁chamber	-10.7076
▁abroad	-10.7076
▁understanding	-10.7076
▁vision	-10.7077
▁hidden	-10.7077
▁ministers	-10.7078
▁reward	-10.7082
▁nose	-10.7083
▁houses	-10.7086
▁innocent	-10.7089
can	-10.709
▁survive	-10.7092
▁adviser	-10.7099
degree	-10.71
rous	-10.7101
manda	-10.7102
▁peak	-10.7104
▁hull	-10.7106
▁trained	-10.7108
▁politicians	-10.7108
season	-10.711
▁license	-10.7114
▁trans	-10.7116
▁humans	-10.7119
▁cutting	-10.7122
▁pope	-10.7127
▁philip	-10.7128
tta	-10.7129
▁deny	-10.7138
▁minimum	-10.714
▁personnel	-10.714
▁desert	-10.714
▁posting	-10.7147
▁bills	-10.7147
▁tied	-10.7149
lov	-10.715
▁pakistani	-10.7155
▁landed	-10.7156
▁clo	-10.7157
▁tip	-10.7158
▁scared	-10.716
▁ross	-10.7166
meter	-10.7167
▁normally	-10.7167
▁solar	-10.7168
▁complained	-10.7176
▁wreck	-10.7178
aging	-10.718
iff	-10.7185
▁drinks	-10.7186
▁rooms	-10.7187
▁nu	-10.7187
▁lion	-10.719
▁guarantee	-10.7191
▁smoking	-10.7191
▁outrage	-10.7203
▁investors	-10.7205
ization	-10.7208
▁disappeared	-10.7217
▁francisco	-10.7219
▁milan	-10.7221
▁interests	-10.7222
▁racing	-10.7227
▁knock	-10.7228
▁markets	-10.7235
▁rally	-10.7235
▁zimmerman	-10.7242
▁overseas	-10.7242
▁reference	-10.7243
▁lev	-10.7245
▁outfit	-10.7247
▁approached	-10.7265
child	-10.7267
pound	-10.7268
keeper	-10.727
▁unknown	-10.7272
zu	-10.7276
▁flew	-10.7281
▁totally	-10.7282
▁coat	-10.7283
35	-10.7283
19	-10.7286
▁fifa	-10.7295
▁meal	-10.7299
pan	-10.73
▁warrant	-10.7311
▁realised	-10.7315
▁gift	-10.7317
▁49	-10.7319
mond	-10.7321
▁tape	-10.7324
▁mat	-10.7325
▁roads	-10.7328
▁chip	-10.7328
▁rice	-10.7329
▁established	-10.733
▁parking	-10.7331
▁featur	-10.7332
▁symbol	-10.7333
▁slightly	-10.7333
65	-10.7339
▁jonathan	-10.7346
▁pennsylvania	-10.7346
▁grab	-10.7348
referred	-10.7349
▁chat	-10.735
▁toilet	-10.7353
▁bench	-10.7357
▁variety	-10.7359
▁awarded	-10.7359
try	-10.7365
▁emma	-10.7366
▁technique	-10.7372
▁yards	-10.7375
▁insist	-10.738
▁sons	-10.7384
▁20-	-10.7391
▁gray	-10.7393
▁taxi	-10.7394
▁revolution	-10.7396
▁chase	-10.74
▁elected	-10.7403
▁familiar	-10.7411
▁birds	-10.7414
ador	-10.7417
▁performing	-10.7424
▁recalled	-10.7427
▁jason	-10.7431
▁tap	-10.7438
▁settlement	-10.7439
▁gulf	-10.744
reaching	-10.7451
▁embassy	-10.7451
▁destination	-10.7452
refore	-10.7452
▁wright	-10.7453
▁hills	-10.7457
▁cream	-10.7466
▁joining	-10.7469
▁pocket	-10.7477
27	-10.7478
▁defendant	-10.7479
care	-10.7482
ches	-10.7484
▁attract	-10.7486
▁telegraph	-10.7491
bru	-10.7491
73	-10.7501
▁waste	-10.7503
▁extend	-10.7503
▁battery	-10.7505
▁terrorists	-10.7506
▁dam	-10.7508
chel	-10.7514
eck	-10.7514
▁relatively	-10.7515
▁rugby	-10.7517
▁sanctions	-10.7517
▁cliff	-10.7519
▁strikes	-10.7519
▁collapsed	-10.752
ili	-10.7521
▁payments	-10.7522
utter	-10.7524
▁rot	-10.7524
▁belong	-10.7527
▁attitude	-10.753
▁prosecut	-10.7532
bit	-10.7539
▁immigrants	-10.7543
▁laura	-10.7545
▁shore	-10.7545
▁comedy	-10.7545
▁laid	-10.7546
▁unclear	-10.7546
▁moore	-10.755
▁interesting	-10.7552
▁communications	-10.7553
▁stepped	-10.756
▁mention	-10.7561
▁pupils	-10.7566
▁favour	-10.7569
▁era	-10.757
▁arriving	-10.757
▁jamie	-10.7572
▁hillary	-10.7573
elle	-10.7574
ord	-10.7578
▁characters	-10.7579
▁voted	-10.7583
▁subsequent	-10.7583
▁pattern	-10.7583
▁shark	-10.7591
wel	-10.7594
▁belt	-10.7597
wing	-10.7597
▁radical	-10.7597
71	-10.7599
ink	-10.7602
▁elderly	-10.7603
▁tattoo	-10.761
▁vegas	-10.761
die	-10.7612
▁creative	-10.7613
ears	-10.7617
logical	-10.7622
▁breakfast	-10.7624
▁terminal	-10.7624
▁pregnancy	-10.7626
▁veterans	-10.7629
▁grade	-10.7632
▁temp	-10.7641
▁cole	-10.7646
▁intense	-10.7651
28	-10.7655
▁strange	-10.766
▁wealth	-10.766
▁boo	-10.7662
▁advocate	-10.7664
▁mirror	-10.7664
▁replied	-10.7664
▁approved	-10.7671
▁flowers	-10.7673
▁lies	-10.7675
▁crucial	-10.7677
▁appearances	-10.768
▁concluded	-10.7685
▁partners	-10.7686
▁circle	-10.7691
▁clark	-10.7701
▁lauren	-10.7706
▁trauma	-10.7706
▁upper	-10.7708
▁achieve	-10.7715
▁drew	-10.7717
▁adapt	-10.7718
▁castle	-10.7722
▁kong	-10.7723
90	-10.7723
produc	-10.7728
▁robin	-10.7729
▁begins	-10.773
▁cctv	-10.7731
▁moral	-10.7733
▁starts	-10.7735
▁threatening	-10.7735
▁1999	-10.7737
▁delay	-10.7739
▁hor	-10.774
▁electric	-10.7742
▁distress	-10.7745
nell	-10.7746
spect	-10.7746
▁scenes	-10.7752
24	-10.7755
▁alexander	-10.7758
▁convert	-10.776
▁tech	-10.7766
▁targets	-10.7769
▁opportunities	-10.7772
gl	-10.7774
▁rivals	-10.7776
45	-10.7783
▁implement	-10.7786
▁christie	-10.7788
rey	-10.7798
▁appointment	-10.78
▁pump	-10.78
▁repair	-10.78
▁celebrities	-10.7813
▁danny	-10.7815
rich	-10.7815
▁engaged	-10.7819
▁muslims	-10.7825
▁michigan	-10.7827
▁consumer	-10.7827
saving	-10.7827
▁ann	-10.7829
2,000	-10.7835
11	-10.7837
▁atlantic	-10.7838
▁replace	-10.7845
tat	-10.7851
rrell	-10.7852
▁summit	-10.7854
▁ward	-10.7864
▁grey	-10.7865
▁luis	-10.7867
▁admir	-10.7868
▁dump	-10.7873
▁marathon	-10.7881
▁noted	-10.7881
▁frame	-10.7882
▁perry	-10.7883
▁fees	-10.7887
▁dozen	-10.7887
▁52	-10.7888
sey	-10.789
▁maximum	-10.7895
▁defin	-10.7896
▁recover	-10.7902
bre	-10.7902
▁bou	-10.7908
therapy	-10.7911
lay	-10.7912
▁guest	-10.7913
▁risks	-10.7916
▁links	-10.7919
count	-10.792
▁dive	-10.7929
▁drawn	-10.7934
▁francis	-10.7934
west	-10.7937
lou	-10.7938
▁regret	-10.7946
▁santa	-10.7947
ans	-10.7951
▁documentary	-10.7952
▁graduate	-10.7965
▁outcome	-10.7965
▁roy	-10.7967
▁explains	-10.7967
▁cable	-10.7968
▁dust	-10.7968
▁transform	-10.7978
▁roberts	-10.798
▁leads	-10.7984
mark	-10.7986
▁math	-10.799
▁prisoners	-10.7991
▁ages	-10.7991
▁53	-10.7994
▁sixth	-10.7995
▁lisa	-10.7996
▁brilliant	-10.8006
▁stomach	-10.8006
▁wins	-10.8011
▁edwards	-10.8018
▁facilities	-10.802
▁jimmy	-10.802
▁log	-10.8022
▁rein	-10.8026
▁grace	-10.8026
▁classes	-10.8028
horn	-10.8028
1.5	-10.803
▁core	-10.8031
jennifer	-10.8034
▁judges	-10.8034
▁arts	-10.8035
▁equal	-10.8037
test	-10.8041
▁complain	-10.8045
▁egyptian	-10.805
ele	-10.8051
▁prepar	-10.8052
▁accus	-10.8054
▁connected	-10.8059
▁teaching	-10.806
▁sentencing	-10.8062
▁argue	-10.8063
60	-10.8066
▁tradition	-10.8068
▁bre	-10.8068
▁drawing	-10.807
70	-10.807
rank	-10.8071
▁apparent	-10.8073
▁drunk	-10.8073
▁operator	-10.8076
▁hodg	-10.8077
▁connect	-10.8081
▁shar	-10.8084
▁gal	-10.8084
▁unfortunately	-10.8085
▁exploit	-10.809
▁childhood	-10.8093
▁islands	-10.8103
▁stroke	-10.8104
▁criticised	-10.8104
billion	-10.8104
▁volunteer	-10.8105
activ	-10.8106
pre	-10.811
▁powers	-10.8112
▁fortune	-10.8118
▁penn	-10.8118
▁favor	-10.8119
▁taxes	-10.8119
▁independence	-10.8121
▁grounds	-10.8122
▁dominat	-10.8123
▁loud	-10.8124
box	-10.8125
assad	-10.8131
▁dev	-10.8131
▁territory	-10.8132
proof	-10.8135
▁yu	-10.814
▁neighbours	-10.814
▁rev	-10.8149
▁lt	-10.816
▁swim	-10.8161
▁twin	-10.8163
▁formed	-10.8166
lit	-10.8169
km	-10.8171
nnie	-10.8181
▁theater	-10.8181
bal	-10.8184
▁notes	-10.8185
▁hunter	-10.8187
▁sleeping	-10.8188
▁devastating	-10.8189
▁cheap	-10.819
▁dying	-10.8191
▁howard	-10.8191
▁statements	-10.8194
▁restaurants	-10.82
▁thoughts	-10.8201
oma	-10.8201
▁proceed	-10.8202
hm	-10.8202
▁cocaine	-10.8203
▁junior	-10.8203
▁basketball	-10.8203
ara	-10.8204
▁ash	-10.8207
vy	-10.8208
▁greece	-10.8217
8,000	-10.8217
▁exit	-10.8218
▁robinson	-10.8219
▁magic	-10.8221
▁shi	-10.8221
▁thin	-10.8226
▁rangers	-10.8227
▁abused	-10.8228
▁fri	-10.8236
▁contrast	-10.8245
▁ukrainian	-10.826
▁represent	-10.8261
▁root	-10.8268
▁proper	-10.8268
tested	-10.8268
▁cub	-10.8269
▁rip	-10.8271
▁des	-10.8275
88	-10.8277
▁artists	-10.8278
chester	-10.8279
▁button	-10.8279
▁asian	-10.8279
▁chef	-10.8292
▁pit	-10.8297
13	-10.8299
▁spokesperson	-10.8302
▁dedicated	-10.8304
▁spy	-10.8306
▁racist	-10.8306
▁habit	-10.8306
▁towns	-10.8307
▁neil	-10.8318
rating	-10.8322
▁54	-10.8322
▁leeds	-10.8322
▁indicate	-10.8324
▁volunteers	-10.833
▁anybody	-10.8331
▁entirely	-10.8331
▁violation	-10.8332
▁extended	-10.8332
▁extraordinary	-10.8334
▁teenagers	-10.8337
ovic	-10.8339
▁fred	-10.8342
▁permission	-10.8346
▁coroner	-10.8346
▁arabia	-10.8348
▁steel	-10.8348
▁destroy	-10.835
▁brazilian	-10.835
ace	-10.8351
▁breed	-10.8353
ue	-10.8358
▁helps	-10.8359
▁avenue	-10.836
▁globe	-10.8362
▁formula	-10.8363
▁provides	-10.8365
▁sporting	-10.8368
▁narrow	-10.8371
▁marked	-10.8373
▁instance	-10.8375
▁15-	-10.8378
face	-10.8379
76	-10.8387
▁projects	-10.8387
▁locations	-10.8388
▁24-	-10.8389
▁turns	-10.8393
38	-10.8394
▁weak	-10.8396
▁10-	-10.8399
▁chill	-10.8403
▁craft	-10.8403
conic	-10.8409
▁suburb	-10.8415
▁establish	-10.8418
▁followers	-10.8418
▁kay	-10.8418
▁reporting	-10.8419
▁emotion	-10.8424
▁religion	-10.8432
▁cultural	-10.8432
▁dancing	-10.8432
▁matters	-10.8433
stairs	-10.8433
och	-10.8434
▁peer	-10.8434
▁backed	-10.8441
uri	-10.8441
▁jeff	-10.8441
▁consequences	-10.8444
▁newly	-10.8447
▁properties	-10.8447
▁blair	-10.8447
▁involvement	-10.845
▁copy	-10.845
▁improvement	-10.8452
pell	-10.8452
▁rebel	-10.8454
▁hug	-10.8454
▁falls	-10.8461
▁hurricane	-10.8461
▁missouri	-10.8461
▁apology	-10.8462
▁theatre	-10.8463
▁badly	-10.847
place	-10.8471
▁wound	-10.8478
rag	-10.8478
▁unlike	-10.8484
▁procedure	-10.8484
▁egg	-10.8485
▁weekly	-10.8488
▁compos	-10.8489
▁anonymous	-10.8491
▁advertising	-10.8491
jeremy	-10.8505
▁teeth	-10.8508
▁surgeon	-10.8509
74	-10.8511
▁rio	-10.8512
▁temperature	-10.8514
▁holder	-10.8514
▁punishment	-10.8522
▁funny	-10.8523
86	-10.8527
▁cia	-10.8532
▁fee	-10.8532
▁behalf	-10.8534
▁jessica	-10.8535
▁exciting	-10.8536
▁nas	-10.854
▁motion	-10.8553
▁snowden	-10.8553
▁firms	-10.8555
ama	-10.8558
▁warn	-10.8563
▁max	-10.8575
page	-10.8577
▁crazy	-10.8579
▁poison	-10.858
▁craig	-10.8581
▁ipad	-10.8594
oli	-10.8597
▁trading	-10.8608
▁rolling	-10.8612
55	-10.8612
unk	-10.8613
▁pos	-10.8615
▁rome	-10.8617
▁gene	-10.8631
▁op	-10.8631
▁christopher	-10.8638
▁disappointed	-10.8639
ann	-10.8641
two	-10.8642
▁shops	-10.8644
▁escaped	-10.8651
▁anywhere	-10.8653
▁surprising	-10.8653
▁testimony	-10.8653
capacity	-10.8653
▁detained	-10.8653
▁baker	-10.8655
not	-10.8656
hol	-10.8659
▁inspiration	-10.866
citing	-10.8663
▁concept	-10.8667
▁torture	-10.8668
22	-10.8668
▁sandy	-10.8673
▁branch	-10.8674
▁waters	-10.8675
▁hired	-10.8678
▁amazon	-10.8682
isation	-10.8684
▁ashley	-10.8685
▁sounds	-10.8686
▁scrap	-10.8691
ility	-10.8698
▁knocked	-10.87
▁brun	-10.8701
▁remind	-10.8701
33	-10.871
42	-10.871
▁cigarette	-10.8712
▁lie	-10.8713
▁cleared	-10.8715
▁officially	-10.8722
fc	-10.8727
▁strain	-10.8728
▁transition	-10.8729
▁donor	-10.873
▁dubb	-10.873
▁combined	-10.8736
▁horror	-10.8742
▁fernand	-10.8742
▁donald	-10.8742
▁rifle	-10.8742
taught	-10.8742
▁extensive	-10.8757
▁satellite	-10.8757
▁wimbledon	-10.8757
▁pacific	-10.8759
east	-10.8761
▁scores	-10.8762
rm	-10.8762
▁stated	-10.8765
79	-10.8767
▁typically	-10.8771
▁blam	-10.8778
wise	-10.878
▁theft	-10.8781
7,000	-10.8783
▁restrict	-10.8787
▁campbell	-10.8787
cock	-10.8797
pplied	-10.8804
▁mansion	-10.8805
▁rang	-10.8813
▁elephant	-10.8817
▁headquarters	-10.8817
read	-10.8818
▁improved	-10.882
▁testified	-10.8821
stre	-10.8823
▁democrat	-10.8828
▁follows	-10.8832
▁enormous	-10.8832
▁genuine	-10.8832
▁advert	-10.8834
▁clients	-10.8837
▁barely	-10.8842
34	-10.8845
▁philadelphia	-10.8848
▁eve	-10.8852
wat	-10.8853
▁realize	-10.8855
▁smell	-10.8857
▁accompani	-10.8863
▁ideas	-10.8864
44	-10.8864
▁delighted	-10.8878
▁negotiations	-10.8878
lli	-10.8885
▁raped	-10.8886
▁capable	-10.8886
▁historical	-10.8887
▁entering	-10.8888
piece	-10.889
▁widespread	-10.8893
▁competitive	-10.8893
▁baseball	-10.8894
▁carter	-10.8894
▁discussion	-10.89
▁tens	-10.8904
▁fighter	-10.8908
▁kingdom	-10.8909
▁derby	-10.8911
▁mood	-10.8915
form	-10.8921
▁resolution	-10.8924
▁heritage	-10.8924
▁pride	-10.8924
▁manufacturer	-10.8928
▁gaza	-10.8929
▁civilian	-10.893
▁tries	-10.8935
▁hampshire	-10.8939
▁afraid	-10.8939
▁songs	-10.894
▁essex	-10.8941
▁passport	-10.8941
gie	-10.8945
▁select	-10.8951
▁opponents	-10.8953
39	-10.8955
▁types	-10.8956
▁wolf	-10.8956
▁walls	-10.8958
▁cake	-10.8965
▁twist	-10.8967
▁hughes	-10.8973
▁informed	-10.8975
▁firefighters	-10.8983
ban	-10.8984
liga	-10.8984
▁bristol	-10.8985
▁rural	-10.8986
▁insists	-10.8987
▁batter	-10.8989
▁encouraged	-10.8991
gno	-10.8992
▁pray	-10.9002
▁aston	-10.9009
▁factory	-10.9016
▁1997	-10.9017
▁disney	-10.9018
dis	-10.9018
▁magistrates	-10.9021
▁forecast	-10.9023
▁acknowledged	-10.9025
hawk	-10.9027
▁burst	-10.9027
ole	-10.9029
▁luke	-10.903
▁grass	-10.9032
▁proposal	-10.9033
▁planes	-10.9037
78	-10.9039
ova	-10.9042
▁mortgage	-10.9046
▁compound	-10.9047
▁method	-10.905
▁transportation	-10.9052
cited	-10.9058
▁conspiracy	-10.9062
▁congressional	-10.9062
▁cousin	-10.9063
▁thick	-10.9064
▁passion	-10.9071
-6	-10.9079
take	-10.908
▁nazi	-10.9083
▁withdraw	-10.9087
▁hail	-10.9092
▁priority	-10.9096
▁delivery	-10.9097
▁clock	-10.9098
▁sisters	-10.91
▁anne	-10.9101
▁retailer	-10.9103
lace	-10.9104
lee	-10.9105
▁promise	-10.9106
▁jewish	-10.9108
▁overnight	-10.9117
▁represents	-10.9119
▁waves	-10.9125
profile	-10.9126
▁kenya	-10.9126
▁guardian	-10.9129
▁ideal	-10.9131
div	-10.9139
▁inappropriate	-10.9139
sensitive	-10.9139
▁osborne	-10.9139
appointed	-10.914
▁closing	-10.914
▁partnership	-10.9142
▁brom	-10.9149
▁effectively	-10.9152
▁eggs	-10.9155
▁gallery	-10.9155
▁lend	-10.9158
▁filming	-10.9163
ato	-10.9167
▁poverty	-10.9171
▁stewart	-10.9171
▁column	-10.9171
▁swansea	-10.9171
key	-10.9174
▁zero	-10.9174
▁marry	-10.9179
▁manner	-10.9185
▁pip	-10.9201
▁yard	-10.9201
sheet	-10.9202
▁portrait	-10.9202
▁trafford	-10.9202
▁turkish	-10.9202
▁gates	-10.9205
▁buck	-10.9207
▁admits	-10.9207
mile	-10.9208
ada	-10.9209
script	-10.9218
▁noise	-10.9221
▁ones	-10.9222
▁ruin	-10.9225
▁detailed	-10.9227
▁update	-10.9228
▁naked	-10.9234
▁fault	-10.9235
▁shower	-10.9235
▁advis	-10.9238
▁managing	-10.9239
lift	-10.924
▁abortion	-10.9249
▁abbott	-10.9249
▁pig	-10.925
fewer	-10.9253
▁poster	-10.9254
▁yemen	-10.9255
▁marketing	-10.9255
makers	-10.9258
some	-10.9263
rah	-10.9264
▁circuit	-10.9265
▁succeed	-10.9265
▁disappearance	-10.9265
▁12-	-10.9266
▁medication	-10.9267
▁celebrat	-10.927
82	-10.9276
ddle	-10.9278
▁homeless	-10.928
▁sunderland	-10.9281
nor	-10.9281
▁poses	-10.9281
cho	-10.9285
▁thinks	-10.9289
▁beck	-10.9292
life	-10.9292
▁briton	-10.9293
▁suggestion	-10.9299
▁compet	-10.9302
41	-10.9304
▁movies	-10.9308
▁combination	-10.9312
▁glasgow	-10.9312
▁rodgers	-10.9312
known	-10.9318
▁inform	-10.9318
▁demanding	-10.9324
▁thompson	-10.9328
▁welfare	-10.9328
▁gla	-10.9328
bat	-10.933
eman	-10.9331
rim	-10.9333
▁shame	-10.9334
▁blo	-10.9334
front	-10.9336
▁stem	-10.934
▁obvious	-10.9343
▁substance	-10.9344
▁landscape	-10.9344
▁pleas	-10.9346
▁strongly	-10.935
▁cbs	-10.935
▁hind	-10.9352
sch	-10.9356
▁investigated	-10.9358
▁greg	-10.9358
▁constant	-10.9359
guard	-10.936
▁demanded	-10.937
▁boom	-10.9371
▁quot	-10.9373
▁terry	-10.9377
▁hammer	-10.9381
▁greek	-10.9393
▁corruption	-10.9393
▁teach	-10.9395
▁tourist	-10.94
▁blaze	-10.9404
▁wenger	-10.9408
▁56	-10.9409
▁decorat	-10.941
▁bern	-10.9411
▁trainer	-10.9412
▁remarkable	-10.9415
▁writes	-10.9415
▁mixed	-10.9422
▁rig	-10.9422
▁repeated	-10.9422
▁bizarre	-10.9424
▁rear	-10.9424
▁cats	-10.943
▁bang	-10.9435
▁riding	-10.9436
▁belgium	-10.944
▁lincoln	-10.944
▁suspicious	-10.944
81	-10.9441
▁1998	-10.9442
▁911	-10.9442
▁stable	-10.9448
▁slip	-10.9448
▁likes	-10.9452
▁selfie	-10.9455
gran	-10.9455
48	-10.9456
ix	-10.9466
▁fishing	-10.9468
▁parade	-10.947
▁selection	-10.9471
▁initiative	-10.9472
▁pier	-10.9476
▁bal	-10.9478
ean	-10.9481
▁crying	-10.9481
▁industrial	-10.9488
▁luck	-10.9489
dom	-10.9489
shi	-10.9496
pol	-10.95
▁moves	-10.9503
▁referendum	-10.9505
▁rub	-10.9505
hop	-10.9506
94	-10.9506
▁dur	-10.9506
▁preparation	-10.9508
▁peaceful	-10.9509
▁cope	-10.9512
▁punish	-10.9518
▁brooklyn	-10.9521
▁screaming	-10.9521
▁afterwards	-10.9522
▁orders	-10.9522
26	-10.9522
▁gender	-10.9523
▁taxpayers	-10.9524
▁ukip	-10.9526
▁bride	-10.9527
under	-10.9535
▁justin	-10.9539
▁hiv	-10.9539
▁hostage	-10.9544
▁representative	-10.9549
▁temporary	-10.9553
▁palm	-10.9556
▁kicked	-10.9559
▁citizen	-10.9561
construct	-10.9569
▁oxford	-10.9569
▁consultant	-10.957
wife	-10.9572
▁becomes	-10.9572
dun	-10.9573
▁winners	-10.9574
▁significantly	-10.9574
▁painful	-10.9575
▁usual	-10.9576
▁tent	-10.9579
▁theory	-10.9591
▁meetings	-10.9592
▁oklahoma	-10.9602
▁participate	-10.9602
held	-10.9603
▁helen	-10.9606
▁packed	-10.9608
▁capt	-10.9614
▁susan	-10.9614
▁mountains	-10.9615
▁checks	-10.9617
▁rescued	-10.9617
▁guess	-10.962
pet	-10.9622
night	-10.9622
▁analysts	-10.9622
▁17-	-10.9626
▁dock	-10.9631
▁assess	-10.9633
▁departure	-10.9635
▁unveiled	-10.9642
▁chronic	-10.9643
aga	-10.9643
▁16-	-10.965
rock	-10.9654
▁jacket	-10.966
▁commons	-10.9662
▁comic	-10.9663
card	-10.9663
▁cow	-10.9664
▁slim	-10.9665
▁forever	-10.9666
▁attacking	-10.9668
▁portray	-10.9669
▁collected	-10.967
▁slowly	-10.9673
shot	-10.9674
52	-10.9679
46	-10.968
▁stronger	-10.9683
▁stuart	-10.9684
▁mystery	-10.9684
▁voting	-10.9685
▁corn	-10.9686
▁barb	-10.9688
▁bump	-10.9688
84	-10.969
▁values	-10.9692
▁jar	-10.9695
▁attending	-10.9696
▁musical	-10.9697
▁guards	-10.9699
▁offence	-10.97
▁bayern	-10.97
▁soul	-10.9704
▁stranger	-10.9707
hl	-10.9719
▁25-	-10.9724
▁hanging	-10.9733
▁griev	-10.9734
searching	-10.974
▁swing	-10.9743
▁medic	-10.9748
miss	-10.975
36	-10.975
ister	-10.9751
▁solid	-10.9752
▁1960	-10.9753
▁couples	-10.9755
▁foods	-10.9759
▁regulator	-10.9762
▁refus	-10.9763
kel	-10.9766
▁promotion	-10.9767
▁sierra	-10.9767
▁bruce	-10.9767
▁speculation	-10.9769
▁chant	-10.9772
▁600	-10.9777
▁register	-10.9779
gur	-10.9782
▁supplies	-10.9783
▁cafe	-10.9792
▁illustrat	-10.98
▁venue	-10.98
▁depict	-10.98
▁probe	-10.9803
▁doll	-10.9806
▁wool	-10.9809
▁advanced	-10.9818
vel	-10.9819
▁christ	-10.9824
▁corporation	-10.9833
▁lap	-10.9838
56	-10.9841
▁approval	-10.985
▁athletes	-10.985
92	-10.9851
▁democracy	-10.9851
▁contend	-10.9859
▁emails	-10.9861
▁mothers	-10.9862
▁coordinat	-10.9868
▁beer	-10.9872
▁rider	-10.9874
▁aside	-10.9882
▁reception	-10.9883
▁sweat	-10.9884
▁2-1	-10.9885
▁teens	-10.9885
▁aaron	-10.9885
▁sees	-10.9886
dan	-10.9887
▁russell	-10.99
▁celtic	-10.99
▁cycle	-10.99
▁float	-10.9903
▁blocked	-10.9905
▁exhibition	-10.9907
▁lind	-10.9914
▁posts	-10.9917
▁contribution	-10.9917
▁genetic	-10.9919
▁petition	-10.9919
▁drill	-10.9923
▁revelation	-10.9934
▁striking	-10.9934
▁degrees	-10.9934
lands	-10.9935
▁harder	-10.994
brook	-10.9943
▁convinced	-10.9945
▁humanitarian	-10.9951
▁sits	-10.9951
▁trophy	-10.9951
▁nigeria	-10.9953
▁diplomatic	-10.9953
▁investigations	-10.9962
ida	-10.9966
▁decline	-10.9966
▁aviation	-10.9968
ranking	-10.9975
dies	-10.9982
▁criminals	-10.9985
▁ease	-10.9993
▁dean	-11
▁detention	-11.0002
▁arrests	-11.0003
▁entry	-11.0004
▁bears	-11.0004
▁allies	-11.0011
▁geo	-11.0014
▁jurors	-11.0019
▁memories	-11.0019
▁importance	-11.0019
▁spill	-11.0022
▁firing	-11.0024
▁hung	-11.0027
▁mun	-11.0028
nis	-11.0029
▁demands	-11.0029
▁distribut	-11.0031
▁instrument	-11.0036
▁dallas	-11.0036
▁awareness	-11.004
▁virgin	-11.004
▁generate	-11.0041
▁gon	-11.0042
▁mario	-11.0042
▁prohibit	-11.0053
▁bureau	-11.0053
▁bread	-11.0056
▁representatives	-11.0058
▁creation	-11.0062
turn	-11.0067
▁athletic	-11.007
▁employment	-11.007
▁spray	-11.0071
▁sets	-11.0072
▁seed	-11.0075
▁adams	-11.0076
tha	-11.0077
path	-11.008
aud	-11.008
cast	-11.0087
▁paramedic	-11.0087
▁samsung	-11.0087
▁grabbed	-11.0087
▁meals	-11.009
fried	-11.0094
54	-11.0096
▁islamist	-11.0098
96	-11.0104
▁collision	-11.0104
▁grateful	-11.0104
▁infected	-11.0104
▁opposite	-11.0104
▁assessment	-11.0107
▁loves	-11.0113
▁popp	-11.0115
dated	-11.0115
▁lloyd	-11.0121
▁beneath	-11.0121
▁accusations	-11.0121
▁thailand	-11.0122
▁barrier	-11.0123
▁spurs	-11.0124
▁requests	-11.0131
▁bomber	-11.0132
▁jam	-11.0136
▁10.	-11.0138
▁cuba	-11.0138
▁holland	-11.0138
▁rodriguez	-11.0139
illa	-11.0145
▁translat	-11.0146
▁surf	-11.0148
▁pole	-11.0151
▁appreciate	-11.0156
▁exposure	-11.0156
▁galaxy	-11.0156
▁mitchell	-11.0156
▁silence	-11.0156
▁draft	-11.0156
▁registered	-11.016
▁elite	-11.0161
▁appearing	-11.0163
▁convention	-11.0166
▁fran	-11.0169
mia	-11.017
▁westminster	-11.0173
▁seattle	-11.0173
▁cornwall	-11.0173
▁utah	-11.0174
▁neighbors	-11.0176
▁covering	-11.0178
▁adventure	-11.018
▁loving	-11.0181
▁recommended	-11.0181
▁lessons	-11.0185
▁roger	-11.0186
▁spectacular	-11.019
▁telephone	-11.019
▁infant	-11.0191
▁robbery	-11.0191
▁praised	-11.0192
▁crush	-11.0193
29	-11.0196
level	-11.02
bin	-11.0205
dollar	-11.0206
▁retail	-11.0207
▁debris	-11.0208
▁proceedings	-11.0209
▁horses	-11.0209
eth	-11.021
▁crossing	-11.0211
▁albert	-11.0214
itz	-11.0217
▁hunting	-11.0219
▁burns	-11.0221
75	-11.0227
▁barn	-11.0235
▁webb	-11.0236
▁achieved	-11.0239
vic	-11.0239
▁gerrard	-11.0242
▁illinois	-11.0242
▁garcia	-11.0243
▁retain	-11.0243
▁stamp	-11.0243
▁indicat	-11.0244
▁toll	-11.0249
▁nurses	-11.0252
hai	-11.0265
▁mcg	-11.027
went	-11.027
▁occasions	-11.0274
▁mohammed	-11.0277
▁triumph	-11.0277
▁notorious	-11.0277
▁retirement	-11.0279
▁martinez	-11.0279
▁echo	-11.028
▁whit	-11.0282
89	-11.0285
leigh	-11.0288
▁statistics	-11.0295
▁except	-11.0299
▁30-	-11.03
▁sean	-11.0306
▁amy	-11.0307
▁celebrated	-11.0311
▁defensive	-11.0312
▁skull	-11.0312
▁carrier	-11.0313
▁attracted	-11.0313
▁orbit	-11.0314
▁personally	-11.0314
▁clarke	-11.0322
▁recognise	-11.0328
▁organizations	-11.033
▁corporate	-11.033
▁estimates	-11.033
▁portion	-11.0331
▁carol	-11.0331
▁gross	-11.0337
▁represented	-11.0338
▁icon	-11.0338
▁laden	-11.0345
▁survivors	-11.0346
cult	-11.0347
▁approximate	-11.0347
▁mercedes	-11.0347
▁inflation	-11.0348
▁entitled	-11.0348
ua	-11.0348
43	-11.035
▁hotels	-11.0351
▁brad	-11.0353
▁crop	-11.0353
▁glen	-11.0354
▁publish	-11.0355
ura	-11.0364
▁ethnic	-11.0365
▁extent	-11.0365
▁burned	-11.0367
▁teammate	-11.0371
▁bones	-11.0379
▁intervention	-11.0383
▁mcdonald	-11.0383
▁1996	-11.0385
bot	-11.0386
uma	-11.039
▁exhibit	-11.0393
▁250	-11.0396
▁arena	-11.0397
winning	-11.0398
▁highlight	-11.0402
-20	-11.0402
▁desk	-11.0403
▁tube	-11.0408
▁pursue	-11.0409
▁brings	-11.0418
▁mock	-11.0418
topping	-11.0421
▁achievement	-11.0421
▁grim	-11.0421
▁transferr	-11.0422
▁wounds	-11.0426
cus	-11.0427
ural	-11.0428
hab	-11.0433
ache	-11.0434
▁barclays	-11.0436
▁fianc	-11.0439
▁persi	-11.0443
▁cannabis	-11.0454
▁davies	-11.0454
▁mandela	-11.0454
▁scout	-11.0454
pass	-11.0458
▁admit	-11.046
▁slave	-11.0463
▁advertise	-11.047
▁assets	-11.0473
▁plain	-11.0477
▁stake	-11.048
▁collapse	-11.0485
▁deals	-11.0486
▁homeland	-11.0488
▁vietnam	-11.0489
▁factors	-11.0489
▁ordeal	-11.0489
eur	-11.049
▁furious	-11.049
▁minority	-11.0493
▁conservatives	-11.0495
word	-11.0496
▁dug	-11.05
▁nervous	-11.0507
▁margaret	-11.0507
▁cheese	-11.0507
ali	-11.0508
▁heroin	-11.0512
▁footballer	-11.0515
▁rad	-11.0515
▁halt	-11.0517
ike	-11.0518
plan	-11.052
▁excellent	-11.0525
ero	-11.0526
▁riot	-11.0527
▁bl	-11.0532
▁polls	-11.0533
▁spare	-11.0534
▁lovely	-11.0549
▁crowds	-11.0549
▁roman	-11.0552
gal	-11.0554
ben	-11.0554
▁intent	-11.0555
▁ourselves	-11.0561
▁sheffield	-11.0561
▁worn	-11.0563
▁devon	-11.0567
ral	-11.0571
▁whil	-11.0574
▁carbon	-11.0579
▁burning	-11.0587
▁cli	-11.0588
▁experiences	-11.0596
▁challenging	-11.0597
▁courage	-11.0597
▁acted	-11.0597
▁14-	-11.0601
▁steal	-11.0605
▁negotiat	-11.0608
▁votes	-11.0611
▁costume	-11.0616
▁loose	-11.0616
▁800	-11.062
▁flooding	-11.0628
▁walks	-11.0636
▁institution	-11.0641
▁gather	-11.0642
▁expecting	-11.0644
▁bitter	-11.0646
▁pile	-11.0648
▁leap	-11.0649
▁conclusion	-11.0651
▁everywhere	-11.0651
▁moyes	-11.0651
▁analyst	-11.0651
▁panic	-11.0653
▁burnley	-11.0654
▁sue	-11.0655
zar	-11.0656
band	-11.0659
▁substantial	-11.0669
▁urban	-11.0669
▁conced	-11.067
-5	-11.0673
▁exact	-11.0673
▁20,000	-11.0681
▁breathing	-11.0682
-7	-11.0684
▁schedule	-11.0684
▁butter	-11.0684
▁regulations	-11.0688
▁mur	-11.069
▁export	-11.0693
▁gp	-11.0698
▁disgust	-11.0706
▁tired	-11.0707
jan	-11.0708
▁interviews	-11.0712
▁subs	-11.0714
ute	-11.0715
yne	-11.0722
▁repeat	-11.0725
▁corps	-11.0726
▁visible	-11.0729
▁impressed	-11.0733
▁fence	-11.0734
runner	-11.0735
▁directed	-11.0736
▁frozen	-11.0742
▁treasury	-11.0742
▁1-0	-11.0742
▁typical	-11.0744
2.5	-11.0749
▁youngest	-11.0753
▁uncover	-11.0755
▁opposed	-11.0758
▁begun	-11.0761
▁beckham	-11.0762
▁balls	-11.077
▁musician	-11.0771
▁discussed	-11.0772
▁frequently	-11.0772
mara	-11.0773
03	-11.0774
32	-11.0776
▁rarely	-11.0777
▁witnessed	-11.0778
▁constitution	-11.0779
▁pages	-11.078
named	-11.0782
▁singing	-11.0787
▁savings	-11.0787
▁principle	-11.0797
▁swift	-11.0797
▁jesus	-11.0797
▁successfully	-11.0798
▁migrants	-11.0798
▁mali	-11.0799
▁electricity	-11.08
▁glad	-11.0801
▁layer	-11.0802
▁realise	-11.0802
▁cord	-11.0806
▁tracks	-11.0808
▁personality	-11.0809
rose	-11.0809
▁temple	-11.0813
augh	-11.0814
▁founded	-11.0816
hel	-11.0817
▁haiti	-11.0817
▁oldest	-11.0818
▁1994	-11.0818
▁explore	-11.082
▁tools	-11.0821
▁lone	-11.0821
▁compare	-11.0823
pec	-11.0823
hard	-11.0829
▁connecticut	-11.0834
▁bishop	-11.0834
▁lawrence	-11.0834
▁oliver	-11.0836
uous	-11.0838
▁apps	-11.0842
▁bottles	-11.0844
▁answers	-11.0844
▁killings	-11.0851
31	-11.0851
▁overwhelming	-11.0853
▁2-0	-11.0853
▁constantly	-11.0853
▁nicola	-11.0854
▁papers	-11.0856
▁actual	-11.0856
▁impression	-11.0857
▁profits	-11.0866
▁absence	-11.0871
▁rover	-11.0876
▁lifetime	-11.0878
▁romantic	-11.0891
▁vol	-11.0891
▁wealthy	-11.0895
▁announce	-11.0896
▁deem	-11.0901
▁surge	-11.0907
▁somewhere	-11.0908
▁outdoor	-11.0908
▁comparison	-11.0909
▁representing	-11.0913
▁bug	-11.0918
▁hits	-11.0921
▁bombs	-11.0921
▁courts	-11.0923
▁cle	-11.0923
▁charlotte	-11.0927
▁principal	-11.0927
▁shopper	-11.0932
▁plants	-11.0934
▁attorneys	-11.094
▁adjust	-11.0945
▁metropolitan	-11.0945
▁unemployment	-11.0945
▁dawn	-11.0947
▁holidays	-11.0948
shap	-11.0951
▁neuro	-11.0957
▁networks	-11.0963
▁academic	-11.0964
▁fundamental	-11.0964
▁vaccine	-11.0964
83	-11.0966
▁50,000	-11.097
▁positions	-11.0971
funded	-11.0972
employed	-11.0978
▁offenders	-11.0981
▁picking	-11.0982
08	-11.0983
▁slam	-11.0983
▁singapore	-11.0983
▁alabama	-11.0983
▁nightmare	-11.0983
▁parker	-11.0983
▁folk	-11.0983
09	-11.0985
▁salary	-11.0986
▁menu	-11.0986
▁booked	-11.0995
▁substitute	-11.1002
▁cardiff	-11.1003
▁aide	-11.1013
▁fisher	-11.1016
▁facts	-11.1017
▁crews	-11.102
▁transplant	-11.102
▁aftermath	-11.1021
▁licence	-11.1021
cia	-11.1021
▁krist	-11.1021
kan	-11.1021
▁studying	-11.1023
▁regulat	-11.1024
▁bun	-11.1031
▁mistakes	-11.1032
▁julie	-11.1038
▁faster	-11.1038
▁signature	-11.1039
▁nationwide	-11.104
▁tesco	-11.104
▁tele	-11.1041
▁oak	-11.1049
▁visits	-11.1049
▁prevention	-11.1053
▁settled	-11.1055
▁delayed	-11.1057
▁guidelines	-11.1058
lk	-11.1063
▁donations	-11.1069
▁span	-11.107
▁limb	-11.1072
▁entrance	-11.1077
▁rocks	-11.1084
▁gru	-11.1086
▁hamas	-11.1088
matic	-11.1093
▁robot	-11.1095
▁scientific	-11.1096
▁nomination	-11.1096
▁priest	-11.1097
▁didn	-11.1098
▁phillips	-11.1099
▁1995	-11.1101
▁searched	-11.1109
▁chile	-11.1115
▁denies	-11.1117
urg	-11.1117
▁23-	-11.1122
▁physically	-11.1123
▁liked	-11.1126
▁salmon	-11.1135
elect	-11.1136
▁basically	-11.1136
pil	-11.114
fined	-11.1141
▁pure	-11.1142
▁tur	-11.1147
▁amounts	-11.1151
▁vacation	-11.1153
▁cyber	-11.1154
▁trigger	-11.1157
▁patriot	-11.1157
▁sgt	-11.1158
▁wage	-11.116
▁obesity	-11.1172
▁tunnel	-11.1172
▁midlands	-11.1173
▁liberia	-11.1173
sburg	-11.1178
▁shin	-11.1179
▁tips	-11.1182
▁seventh	-11.1182
▁cabin	-11.1185
dding	-11.1186
▁odd	-11.1189
▁throat	-11.1191
itive	-11.1193
▁locals	-11.1199
▁clinical	-11.1203
▁resulted	-11.1204
▁nicknam	-11.1205
▁materials	-11.1208
▁uncle	-11.1208
▁touched	-11.121
▁forensic	-11.121
▁sink	-11.1214
▁trips	-11.1223
▁leak	-11.1233
▁studi	-11.1234
▁22-	-11.1235
▁refer	-11.1236
▁communication	-11.1236
▁hosts	-11.1237
▁procedures	-11.1238
▁bacteria	-11.1249
▁sanchez	-11.1249
▁caution	-11.1249
▁legacy	-11.1249
▁objects	-11.126
▁performances	-11.1268
▁treasure	-11.1268
▁escort	-11.1268
▁excuse	-11.1268
▁lawmakers	-11.1271
▁underground	-11.1271
round	-11.1278
▁websites	-11.1285
▁wip	-11.1287
fold	-11.1287
▁qatar	-11.1287
▁arrangement	-11.1288
bon	-11.129
zen	-11.1297
▁bosses	-11.13
bedroom	-11.1306
▁switzerland	-11.1307
▁widow	-11.1307
▁sab	-11.1307
▁restrictions	-11.1308
▁bust	-11.1308
▁beside	-11.1317
▁units	-11.1325
▁edinburgh	-11.1326
▁knox	-11.1326
▁unexpected	-11.1326
▁kansas	-11.1326
▁grandfather	-11.1327
▁relationships	-11.1328
▁grip	-11.1329
▁sudden	-11.1329
▁graphic	-11.1329
▁melt	-11.133
▁viewed	-11.1332
▁colleague	-11.1333
▁gunman	-11.1336
▁strengthen	-11.1338
▁popularity	-11.1339
▁carefully	-11.1341
pod	-11.1344
▁smooth	-11.1346
▁survival	-11.1346
▁tornado	-11.1346
▁nelson	-11.1346
▁kidnapping	-11.1346
anna	-11.135
wag	-11.1351
93	-11.1353
▁solo	-11.1355
▁farmers	-11.1356
▁rever	-11.1361
▁rumour	-11.1365
▁19-	-11.1366
▁emily	-11.1367
▁upload	-11.137
▁embrace	-11.1372
screen	-11.1374
nte	-11.1374
▁jong	-11.1376
▁discipline	-11.1384
▁gentle	-11.1385
▁practices	-11.1385
▁clue	-11.1385
ori	-11.1385
▁ankle	-11.1385
▁keith	-11.1387
uz	-11.1388
▁brady	-11.1389
▁checked	-11.1402
▁swiss	-11.1404
▁lang	-11.1408
▁equivalent	-11.1424
▁savile	-11.1424
▁tensions	-11.1424
▁refugees	-11.1424
▁warren	-11.1439
▁tsarnaev	-11.1443
▁comedian	-11.1443
▁josh	-11.1445
owner	-11.1446
▁keeps	-11.1447
▁attraction	-11.1448
▁politician	-11.1453
▁belonging	-11.1454
▁flames	-11.1454
▁dubai	-11.1463
▁alaska	-11.1463
▁patch	-11.1463
▁nigel	-11.1465
bank	-11.1467
▁bonus	-11.1474
▁forms	-11.1476
▁owen	-11.1478
▁juan	-11.1479
▁disagree	-11.1483
▁residence	-11.1483
▁reforms	-11.1488
▁boxing	-11.1492
▁hundred	-11.1493
eff	-11.1499
▁prominent	-11.1502
▁aspect	-11.1503
▁index	-11.1504
▁carl	-11.1505
98	-11.1519
49	-11.1522
▁syndrome	-11.1522
▁nottingham	-11.1522
▁aboard	-11.1523
▁nail	-11.1533
▁resist	-11.1539
▁entertain	-11.154
▁detroit	-11.1542
▁gardens	-11.1548
▁mud	-11.1549
▁percentage	-11.1549
shirt	-11.156
mbo	-11.1561
▁disabled	-11.1562
dolph	-11.1562
smith	-11.1565
▁recovering	-11.1569
▁stages	-11.1574
ups	-11.1577
ula	-11.1577
▁destruction	-11.1582
▁earthquake	-11.1582
▁encouraging	-11.1582
▁pronounced	-11.1582
▁shield	-11.1582
▁alliance	-11.1582
▁garage	-11.1585
▁porn	-11.1585
▁foul	-11.1586
▁demonstrator	-11.1594
▁borrow	-11.1595
gb	-11.1596
lbs	-11.1601
▁infrastructure	-11.1601
▁walter	-11.1602
▁trains	-11.161
▁headlines	-11.1614
▁rely	-11.1616
▁category	-11.1621
▁demonstrate	-11.1624
▁cooking	-11.163
▁bale	-11.1631
▁relative	-11.1639
▁portugal	-11.1641
▁munich	-11.1642
▁margin	-11.1643
23	-11.1646
▁smashed	-11.1648
▁addict	-11.1648
▁gathering	-11.1653
maid	-11.1656
▁recognize	-11.1658
▁biden	-11.1661
▁ordinary	-11.1661
▁endanger	-11.1661
▁soccer	-11.1662
▁statue	-11.1662
▁fate	-11.1666
▁regions	-11.1677
hem	-11.1679
▁murphy	-11.1682
▁remembered	-11.1684
▁payment	-11.1685
▁deter	-11.1692
▁addressed	-11.1697
▁odds	-11.1697
▁sec	-11.1697
▁edition	-11.1701
dine	-11.1701
▁diabetes	-11.1702
▁literally	-11.1702
▁pizza	-11.1702
▁qpr	-11.1702
▁seemingly	-11.1702
taking	-11.1702
▁managers	-11.1724
▁executed	-11.1727
-8	-11.1728
▁dismiss	-11.173
▁tweets	-11.1734
▁venture	-11.1743
▁crossed	-11.1745
▁2017	-11.1746
▁dressing	-11.1747
▁tourism	-11.1748
conn	-11.1751
91	-11.1761
▁brooks	-11.1765
▁ignored	-11.1768
wives	-11.1771
kov	-11.1771
lian	-11.1772
▁rav	-11.1775
▁vowed	-11.1776
-4	-11.1778
owned	-11.178
▁accomplish	-11.1783
rap	-11.1787
dem	-11.1787
▁ruth	-11.1789
▁protected	-11.1789
fir	-11.1801
▁holy	-11.1802
▁accurate	-11.1803
▁barbara	-11.1803
▁preserve	-11.1804
▁fixed	-11.1806
▁screening	-11.1807
wich	-11.1808
election	-11.1816
lett	-11.1819
▁consult	-11.1819
▁mul	-11.182
eh	-11.1821
▁simpson	-11.1823
▁www	-11.1823
▁autumn	-11.1823
▁expectations	-11.1823
▁mccain	-11.1824
▁mull	-11.1827
▁ye	-11.1831
fare	-11.1832
▁twins	-11.1833
▁requested	-11.1834
tech	-11.1835
cm	-11.1837
▁resembl	-11.1844
▁participants	-11.1852
grove	-11.1853
▁kra	-11.1853
▁improving	-11.1864
▁letting	-11.1865
▁railway	-11.1866
▁reid	-11.1869
▁duck	-11.1877
cum	-11.1877
▁sessions	-11.1878
hole	-11.188
▁fierce	-11.1885
▁banking	-11.1889
▁harper	-11.1891
▁titles	-11.1891
▁cheat	-11.1896
▁nerve	-11.1898
▁activist	-11.1902
▁kentucky	-11.1905
▁minnesota	-11.1905
▁oregon	-11.1905
millionaire	-11.1906
▁safely	-11.1907
▁vs	-11.1915
▁scot	-11.1916
▁30,000	-11.1917
▁militant	-11.192
▁coup	-11.1922
▁sweep	-11.1926
▁endure	-11.1926
▁leather	-11.1926
▁midnight	-11.1927
affe	-11.1928
▁resigned	-11.1928
▁jaw	-11.1939
▁computers	-11.1946
▁concrete	-11.1946
▁frustration	-11.1946
▁descend	-11.1946
▁wembley	-11.1946
▁nathan	-11.1946
▁anchor	-11.1947
▁dates	-11.1949
▁mut	-11.1951
▁engineering	-11.1958
▁soil	-11.196
gotten	-11.1967
▁probation	-11.1967
▁marc	-11.197
▁groom	-11.1972
▁visa	-11.1979
▁louise	-11.1982
▁appeals	-11.1983
▁dancer	-11.1984
duct	-11.1985
▁urgent	-11.1988
wer	-11.1999
▁emerging	-11.2008
▁unfair	-11.2008
▁bounc	-11.201
▁skill	-11.2012
▁whale	-11.2014
post	-11.2015
▁bite	-11.2019
▁alter	-11.202
▁harsh	-11.2021
ith	-11.2023
▁legally	-11.2026
▁argu	-11.2028
▁toddler	-11.203
▁phase	-11.203
▁elementary	-11.203
▁lean	-11.203
▁chaos	-11.2033
▁warnings	-11.2035
▁architect	-11.2044
▁gil	-11.2048
▁spencer	-11.205
▁mentioned	-11.2051
▁forum	-11.2052
▁hint	-11.2054
▁kl	-11.2056
▁lowest	-11.2065
▁21-	-11.2065
▁rounds	-11.207
▁landmark	-11.2072
▁institutions	-11.2075
fen	-11.208
▁stealing	-11.2083
▁mere	-11.2086
▁indication	-11.2088
▁fields	-11.2092
▁venezuela	-11.2092
▁rachel	-11.2093
▁engagement	-11.2094
▁tablet	-11.2094
▁cab	-11.2096
▁youngster	-11.2109
▁intensive	-11.2113
▁hannah	-11.2113
▁smiling	-11.2114
▁lodge	-11.2116
▁kane	-11.2126
▁surrey	-11.2134
▁outstanding	-11.2144
sized	-11.2145
▁haul	-11.2145
▁deficit	-11.2155
▁microsoft	-11.2155
▁valuable	-11.2155
▁opponent	-11.2156
rade	-11.2156
▁replacement	-11.2159
▁dealer	-11.2165
▁harrison	-11.2165
▁mir	-11.2167
▁registration	-11.2176
▁conservation	-11.2176
cious	-11.2182
creat	-11.2187
▁trap	-11.2188
▁handful	-11.2193
maz	-11.2195
▁balotell	-11.2197
▁provision	-11.2198
▁bradley	-11.2199
▁races	-11.2204
▁bold	-11.2206
▁barry	-11.2206
▁roma	-11.2208
▁nicole	-11.2209
▁influen	-11.2213
▁balloon	-11.2218
▁nursing	-11.2218
▁commut	-11.2218
▁stunt	-11.2218
▁nsa	-11.2219
▁perfectly	-11.222
▁businessman	-11.2228
▁pilots	-11.2233
▁stall	-11.2235
▁slamm	-11.2238
▁friendship	-11.2246
▁carries	-11.225
▁dementia	-11.2261
▁austin	-11.2261
▁wrap	-11.2266
▁condo	-11.2268
▁elements	-11.2276
iel	-11.2278
▁bloomberg	-11.2283
qa	-11.2284
▁sony	-11.2287
▁expression	-11.2287
▁southwest	-11.2292
▁feelings	-11.2293
▁forcing	-11.2294
▁deb	-11.2295
ffer	-11.2298
▁intend	-11.23
▁stunn	-11.23
▁casual	-11.2303
cream	-11.2303
▁hazard	-11.2303
▁closure	-11.2304
▁holmes	-11.2304
▁allege	-11.2304
▁resume	-11.2305
▁proposals	-11.2321
▁fascinat	-11.2325
▁inspection	-11.2325
rio	-11.2325
▁prix	-11.2326
▁1992	-11.2328
▁listening	-11.2332
▁stole	-11.2341
yce	-11.2345
▁enable	-11.2345
necessarily	-11.2346
▁admission	-11.2346
▁blanket	-11.2346
▁yacht	-11.2346
▁overcome	-11.2347
▁cosby	-11.2347
▁engage	-11.2349
zel	-11.2349
▁bloody	-11.2349
▁deck	-11.2357
▁dear	-11.236
space	-11.2363
▁everyday	-11.2364
▁hub	-11.2367
▁till	-11.2367
▁tumour	-11.2368
▁cease	-11.2369
▁buzz	-11.2369
▁woke	-11.2371
▁kings	-11.2372
▁shu	-11.2373
▁lil	-11.2374
laying	-11.2374
▁douglas	-11.2389
▁recognition	-11.2389
▁unacceptable	-11.2389
▁insult	-11.239
02	-11.2395
▁gala	-11.2396
▁brands	-11.2397
▁nut	-11.2402
▁battl	-11.2403
▁inmates	-11.2404
▁leon	-11.2405
▁distract	-11.2411
▁assign	-11.2413
▁discrimination	-11.2413
▁random	-11.2413
▁marie	-11.2413
▁columbia	-11.2422
▁finishing	-11.2424
▁fabric	-11.2425
▁duo	-11.2427
▁talented	-11.2431
▁criticized	-11.2431
▁sweden	-11.2433
▁agenda	-11.2433
▁assaulted	-11.2435
▁lamb	-11.2438
ancy	-11.2439
▁thrill	-11.2444
match	-11.2446
agh	-11.2446
ami	-11.2447
tino	-11.245
▁monaco	-11.2454
▁hispanic	-11.2454
▁duncan	-11.2454
▁isolated	-11.2454
▁antonio	-11.2455
▁petrol	-11.2455
▁praise	-11.2456
▁nov	-11.2459
▁nap	-11.2471
▁dig	-11.2473
riv	-11.2474
city	-11.2476
ika	-11.2482
▁topic	-11.249
$	-11.2495
▁relevant	-11.2498
▁tennessee	-11.2498
▁interpret	-11.2498
▁advise	-11.2499
▁careful	-11.2502
▁dreams	-11.2505
▁explosive	-11.2505
▁eighth	-11.2508
▁separated	-11.2511
▁choices	-11.2516
▁easter	-11.2518
▁baltimore	-11.252
eau	-11.2521
▁tale	-11.2522
▁darren	-11.2523
▁lips	-11.2525
link	-11.253
▁camps	-11.2532
mart	-11.2534
▁reign	-11.254
▁proportion	-11.2542
rh	-11.2542
▁restrain	-11.2542
▁mentally	-11.2542
▁denver	-11.2543
▁ahmed	-11.2543
▁dropping	-11.2543
▁submitt	-11.2546
wash	-11.2548
generat	-11.2554
▁ridiculous	-11.2564
▁mosque	-11.2564
▁karl	-11.2565
itation	-11.2567
▁painted	-11.2569
▁iowa	-11.2569
▁dick	-11.257
▁poland	-11.2572
▁pending	-11.2573
▁mitt	-11.2584
▁diagnosis	-11.2586
▁oxygen	-11.2586
▁oversee	-11.2588
▁1993	-11.2588
▁purchased	-11.26
▁download	-11.26
▁compromise	-11.2608
▁explanation	-11.2608
▁judgment	-11.2608
▁legitimate	-11.2608
▁discussions	-11.261
▁middleton	-11.2628
▁homicide	-11.263
▁peninsula	-11.263
▁suspension	-11.263
▁disgrace	-11.263
▁machines	-11.2636
▁noon	-11.2639
▁charm	-11.2649
▁astronaut	-11.2652
▁katie	-11.2652
bridge	-11.2652
▁boot	-11.2658
▁26-	-11.2661
▁indonesia	-11.2662
▁falc	-11.2664
▁blocks	-11.2671
acre	-11.2671
▁tobacco	-11.2674
▁armstrong	-11.2674
▁brush	-11.2674
▁leonard	-11.2675
▁qc	-11.2677
▁somalia	-11.2678
making	-11.2679
▁chart	-11.268
▁feeding	-11.2682
nik	-11.2685
▁ships	-11.269
▁exhaust	-11.2696
▁guinea	-11.2696
▁silent	-11.2696
▁neymar	-11.2696
▁welsh	-11.2697
▁dj	-11.2705
range	-11.2707
▁victor	-11.2716
▁6.5	-11.2717
9,000	-11.2718
▁pentagon	-11.2718
▁gesture	-11.2718
▁collins	-11.2719
▁brenda	-11.2719
live	-11.2721
▁midfield	-11.2721
▁deployed	-11.2723
▁urge	-11.2723
dragged	-11.2723
▁trio	-11.2727
uf	-11.2728
▁maintained	-11.273
print	-11.2736
▁sara	-11.274
▁empire	-11.2741
▁hawaii	-11.2741
▁unprecedented	-11.2741
▁eager	-11.2741
▁massacre	-11.2741
▁losses	-11.2745
▁wider	-11.2748
▁rogers	-11.2749
▁boots	-11.2753
▁liver	-11.276
▁liquid	-11.2763
▁federer	-11.2763
▁boeing	-11.2764
walk	-11.2764
▁sham	-11.2766
ello	-11.2769
▁carpet	-11.2769
▁contractor	-11.277
▁tories	-11.277
scale	-11.2774
97	-11.2776
stead	-11.2778
▁proven	-11.2784
▁austria	-11.2786
▁sergeant	-11.2786
▁replica	-11.2786
▁latin	-11.2788
▁healthcare	-11.279
▁ballot	-11.2791
▁protective	-11.2795
▁1950	-11.2797
▁basement	-11.2798
▁challenged	-11.28
▁raw	-11.2803
conscious	-11.2804
▁imposed	-11.2806
▁deposit	-11.2808
▁asylum	-11.2808
▁libyan	-11.2811
hurst	-11.2812
▁anymore	-11.2817
▁fleet	-11.2822
▁commonwealth	-11.2831
▁sunshine	-11.2831
▁wisconsin	-11.2831
▁lobby	-11.2831
verse	-11.2833
▁forgive	-11.2835
▁berlin	-11.2844
▁examined	-11.2851
▁cathedral	-11.2853
▁grief	-11.2853
▁netherlands	-11.2853
▁wrist	-11.2853
▁27-	-11.2857
▁hollande	-11.2857
nand	-11.2867
waiting	-11.2874
bak	-11.2874
▁import	-11.2875
▁perspective	-11.2876
▁secur	-11.2876
▁sacked	-11.2877
▁gig	-11.2878
▁500,000	-11.2883
▁solve	-11.2884
mouth	-11.2887
ctor	-11.2888
▁deadline	-11.2888
▁leaked	-11.2893
▁lucy	-11.2895
07	-11.2896
▁youngsters	-11.2898
▁enemy	-11.2898
▁guitar	-11.2898
▁parole	-11.29
▁cartel	-11.2908
enberg	-11.2909
onic	-11.291
illo	-11.2915
▁rand	-11.2915
▁passes	-11.2916
▁gifts	-11.2917
▁ambition	-11.2921
▁constitutional	-11.2922
▁sudan	-11.2923
▁settle	-11.2928
▁prayers	-11.2934
force	-11.2934
▁bog	-11.2934
▁loyal	-11.2943
▁angle	-11.2943
▁disappointing	-11.2944
▁guidance	-11.2944
▁universe	-11.2944
▁differences	-11.295
▁delays	-11.2952
spiring	-11.2956
▁selected	-11.2956
▁leone	-11.2957
aj	-11.2962
▁championships	-11.2963
▁somehow	-11.2967
▁visual	-11.2967
troubled	-11.2967
▁nba	-11.2968
▁sprint	-11.2971
▁alba	-11.2972
worthy	-11.2975
▁bobb	-11.2978
▁disrupt	-11.2979
▁begg	-11.298
▁caribbean	-11.299
▁felony	-11.299
▁consist	-11.299
▁dash	-11.2999
▁tab	-11.2999
▁fever	-11.3002
▁publication	-11.3006
▁indictment	-11.3013
▁strategic	-11.3013
▁clay	-11.3017
cheek	-11.302
arrow	-11.3024
▁gat	-11.3025
▁forgotten	-11.3028
▁promising	-11.3036
▁smiles	-11.3039
▁cruz	-11.3041
▁malaysia	-11.3043
▁cape	-11.3044
▁karen	-11.3045
▁coaches	-11.3048
▁confessed	-11.3055
sullivan	-11.3059
▁thorough	-11.3059
▁escalat	-11.3059
▁refuse	-11.306
▁congratulat	-11.3082
▁horrible	-11.3082
▁sensation	-11.3082
▁clever	-11.3083
▁blake	-11.3084
▁continent	-11.3094
▁pets	-11.3096
▁smash	-11.3098
▁120	-11.3099
▁taxpayer	-11.31
▁fairly	-11.31
▁drum	-11.3102
▁marco	-11.3104
▁viral	-11.3107
▁fool	-11.3109
▁grin	-11.3118
▁anyway	-11.3121
▁difficulties	-11.3121
▁illegally	-11.3121
▁donated	-11.3127
watch	-11.313
▁assert	-11.3131
▁herald	-11.3133
▁cure	-11.3136
▁actors	-11.3138
▁reverse	-11.314
▁brighton	-11.3145
▁wooden	-11.3146
▁boats	-11.315
▁stir	-11.315
▁frustrated	-11.3151
▁tissue	-11.3151
▁tropical	-11.3151
▁yoga	-11.3155
▁jill	-11.3156
astro	-11.3162
▁siblings	-11.3164
▁admitt	-11.3173
▁amendment	-11.3175
▁beloved	-11.3175
▁discount	-11.3176
▁dip	-11.318
▁hon	-11.3183
▁drag	-11.3189
▁expenses	-11.3191
▁violat	-11.3191
▁biological	-11.3198
▁mug	-11.3201
▁naturally	-11.3202
▁enforc	-11.3204
▁ranks	-11.321
iya	-11.3211
▁pie	-11.3212
▁ronald	-11.3214
▁itv	-11.3221
▁circulat	-11.3221
▁manslaughter	-11.3221
▁reducing	-11.3221
▁lump	-11.3223
▁equally	-11.3226
▁bailey	-11.3227
▁carlos	-11.3233
fight	-11.3239
course	-11.3241
▁displayed	-11.3243
▁bleeding	-11.3245
▁damaging	-11.3245
▁polish	-11.3246
▁wrapped	-11.3246
▁evil	-11.3246
▁garner	-11.3248
▁possess	-11.3259
▁entrepreneur	-11.3263
▁revealing	-11.3268
▁privilege	-11.3268
▁attractive	-11.3271
▁dish	-11.3276
▁fitted	-11.3277
▁hardly	-11.3277
phy	-11.3287
▁calendar	-11.3292
▁uruguay	-11.3292
▁trafficking	-11.3295
▁laughing	-11.3298
▁origin	-11.3315
▁stupid	-11.3316
▁android	-11.3316
met	-11.3319
▁barrel	-11.3324
▁defendants	-11.3335
▁reasonable	-11.3336
beat	-11.3338
▁superior	-11.3339
▁adrian	-11.334
government	-11.334
▁stab	-11.3341
05	-11.3344
▁dispos	-11.3345
▁consistent	-11.3348
▁readers	-11.335
iver	-11.3351
▁methods	-11.3357
▁kenne	-11.3357
▁blu	-11.3362
▁cleveland	-11.3363
▁fiscal	-11.3363
▁psychological	-11.3363
▁kilometer	-11.3363
▁fiction	-11.3364
▁liz	-11.3378
▁complicated	-11.338
▁aggravat	-11.3387
partisan	-11.3387
▁motorists	-11.3388
▁estimate	-11.3388
but	-11.3392
▁thorn	-11.3394
1,000	-11.3401
ml	-11.3408
▁mick	-11.341
▁promoting	-11.3411
▁description	-11.3411
▁atleti	-11.3412
▁harassment	-11.3412
▁courtroom	-11.3421
▁gps	-11.3424
▁examine	-11.3427
aki	-11.3427
▁dealt	-11.343
▁reduction	-11.3435
▁acquir	-11.3435
▁manuel	-11.3435
▁spider	-11.3435
▁dramatically	-11.3437
▁membership	-11.3439
▁clashe	-11.344
rigg	-11.3441
▁pretend	-11.3444
documented	-11.3449
▁cinema	-11.3459
▁offense	-11.3459
una	-11.3462
▁practical	-11.3472
▁shortage	-11.3472
▁wrestl	-11.3483
▁wheelchair	-11.3483
▁excessive	-11.3484
▁relation	-11.3486
▁acknowledge	-11.3487
▁marshall	-11.3488
▁moderate	-11.3491
tier	-11.3505
▁monster	-11.351
▁unfold	-11.3512
▁metro	-11.3513
▁brick	-11.3516
▁politically	-11.3519
▁colombia	-11.3521
▁dresses	-11.3522
▁champagne	-11.3531
▁awful	-11.3532
bach	-11.354
▁castro	-11.3546
▁corp	-11.3553
▁flip	-11.3554
▁enthusiast	-11.3555
▁administrator	-11.3555
▁extension	-11.3555
▁fixture	-11.3556
▁bradford	-11.3556
▁longest	-11.3557
▁organized	-11.3557
▁classroom	-11.3557
▁hitler	-11.3569
roll	-11.3571
▁filing	-11.3571
▁sunni	-11.3576
agging	-11.3577
▁capitol	-11.3579
▁competitor	-11.3579
▁nominee	-11.3579
▁jerry	-11.358
▁watchdog	-11.3581
▁vegetables	-11.3582
▁communicate	-11.3586
▁employers	-11.3586
▁boxes	-11.3592
▁nutrition	-11.3604
▁airstrike	-11.3604
▁jacob	-11.3604
▁helmet	-11.3605
▁autops	-11.3605
▁mason	-11.3609
▁generations	-11.3614
▁permit	-11.3616
break	-11.3622
▁demonstrations	-11.3622
igan	-11.3622
▁anfield	-11.3623
▁motive	-11.3628
targeting	-11.3629
kg	-11.3631
▁quote	-11.3633
▁cara	-11.3636
▁200,000	-11.3644
▁triple	-11.3646
▁nancy	-11.3646
▁rack	-11.3648
▁coastal	-11.3649
▁anxiety	-11.3653
▁asleep	-11.3653
▁resignation	-11.3655
▁apologise	-11.3658
▁rapidly	-11.3668
▁heroes	-11.3674
talk	-11.3676
▁benjamin	-11.3677
▁prescription	-11.3677
▁scenario	-11.3677
▁cancelled	-11.3678
▁contribute	-11.368
▁ladies	-11.368
▁depart	-11.3681
▁sensor	-11.3681
▁prof	-11.3682
▁remov	-11.3686
▁dodg	-11.3687
▁pursu	-11.3688
▁assembly	-11.3689
▁modest	-11.3689
▁diplomat	-11.3698
ava	-11.37
▁somerset	-11.3702
▁sussex	-11.3702
▁bullying	-11.3702
▁conversations	-11.3708
▁urging	-11.371
▁addiction	-11.3711
▁highlights	-11.3713
▁swan	-11.3719
▁reuse	-11.3719
▁drown	-11.3726
▁mississippi	-11.3726
▁aguero	-11.3727
▁tribe	-11.3732
▁stephan	-11.3734
▁virtual	-11.3734
game	-11.3734
▁grav	-11.3736
▁plum	-11.3739
▁disturbing	-11.3743
▁gm	-11.3743
▁toys	-11.3744
▁buckingham	-11.3751
▁intercept	-11.3751
▁bryan	-11.3751
▁introduce	-11.3752
▁defect	-11.3752
▁honey	-11.3757
world	-11.3758
vision	-11.3767
▁winger	-11.3772
▁wad	-11.3774
▁turner	-11.3775
▁prostitute	-11.3776
▁duties	-11.3779
▁rolled	-11.378
▁concentrat	-11.3789
▁extremists	-11.3796
▁phoenix	-11.3801
▁recession	-11.3801
▁facial	-11.3801
▁explosives	-11.3817
▁worrying	-11.3818
▁aero	-11.382
▁burger	-11.3825
▁brussels	-11.3825
▁commemorat	-11.3825
▁ceiling	-11.3825
▁jumping	-11.3827
▁spotlight	-11.3829
▁cage	-11.383
▁unconscious	-11.383
▁cir	-11.3836
▁realiz	-11.3839
itis	-11.385
▁sergi	-11.3851
▁dominic	-11.3851
▁angela	-11.3854
▁beam	-11.3855
▁northwest	-11.3858
▁jihadist	-11.3859
▁prisoner	-11.386
▁dirty	-11.3861
▁evolv	-11.3864
▁alzheimer	-11.3875
▁baghdad	-11.3875
▁currency	-11.3875
▁murdoch	-11.3875
▁predator	-11.3875
▁stressed	-11.3876
▁hypo	-11.3877
▁apologize	-11.3884
▁desperately	-11.3889
hit	-11.389
adi	-11.3892
▁sacrifice	-11.39
efficient	-11.39
▁federation	-11.39
▁lopez	-11.39
▁wander	-11.3901
▁vincent	-11.3901
automatic	-11.3903
▁doesn	-11.3904
▁enhance	-11.3907
▁arrives	-11.3909
brow	-11.3911
▁dc	-11.3912
04	-11.3915
▁suite	-11.3916
▁consume	-11.3917
wh	-11.3919
▁resign	-11.392
▁downtown	-11.392
ware	-11.3923
▁billionaire	-11.3926
▁prevented	-11.3929
▁attackers	-11.393
▁offend	-11.3933
▁ratings	-11.3938
▁nightclub	-11.3951
▁terrified	-11.3951
▁philippines	-11.3951
▁soviet	-11.3951
▁calories	-11.396
tree	-11.3961
▁cuban	-11.3964
▁embarrassing	-11.3976
▁seizure	-11.3976
▁invasion	-11.3976
feld	-11.3981
▁lesson	-11.3983
shirts	-11.3986
▁glu	-11.3991
▁slide	-11.3991
▁mob	-11.3992
▁iii	-11.3996
▁belgian	-11.4001
▁rebecc	-11.4001
▁universal	-11.4001
▁protein	-11.4001
▁silva	-11.4002
▁resolve	-11.4005
▁1989	-11.4005
▁radar	-11.4005
▁latter	-11.4007
▁thai	-11.401
▁samples	-11.4012
▁fluid	-11.4013
▁gown	-11.4013
cess	-11.4015
▁latino	-11.4015
▁snack	-11.4027
lier	-11.4028
armed	-11.4032
bella	-11.4033
▁affordable	-11.4034
▁runway	-11.4043
track	-11.4047
▁bil	-11.4048
jer	-11.4048
▁suv	-11.406
▁joked	-11.406
▁flee	-11.4072
rina	-11.4077
▁emirates	-11.4078
▁scratch	-11.4078
▁swept	-11.4078
▁implant	-11.4078
▁jeweller	-11.4078
▁glasses	-11.4083
▁buyers	-11.4086
▁frequent	-11.4087
▁lions	-11.409
▁indiana	-11.4093
▁peterson	-11.4093
uni	-11.4094
▁norman	-11.4097
▁mega	-11.4099
zan	-11.4103
▁penalties	-11.4103
▁electrical	-11.4104
▁beaches	-11.411
▁potter	-11.4111
▁earnings	-11.4115
▁pastor	-11.4115
theless	-11.4116
▁severely	-11.4119
▁motivated	-11.4122
oid	-11.4126
▁warner	-11.4128
▁recipe	-11.4129
▁cocktail	-11.4129
▁amateur	-11.4129
▁wy	-11.4133
▁absolute	-11.4138
▁scientist	-11.4141
▁complet	-11.4145
▁divorced	-11.4151
▁critic	-11.4154
▁pyongyang	-11.4155
▁arthur	-11.4155
▁happie	-11.4155
▁slot	-11.4157
▁corr	-11.4158
▁useful	-11.416
eastern	-11.4168
▁heels	-11.4174
▁greeted	-11.4179
▁cycling	-11.418
▁liberty	-11.418
▁bronze	-11.418
▁ireport	-11.4181
▁andrea	-11.4181
▁aunt	-11.4199
▁promises	-11.42
resa	-11.4203
▁staggering	-11.4206
▁sophie	-11.4206
▁spectator	-11.4206
▁inherit	-11.4206
▁gunshot	-11.4208
▁thankful	-11.4212
daughter	-11.4216
▁restore	-11.4216
▁ramp	-11.4217
▁luc	-11.4228
▁closest	-11.423
▁catherine	-11.4232
▁cartoon	-11.4232
▁reagan	-11.4232
gaz	-11.4237
▁pensioner	-11.4239
▁mode	-11.424
▁virtually	-11.425
▁cruel	-11.4255
▁plunge	-11.4258
▁watches	-11.4262
▁patent	-11.4263
idi	-11.4264
▁palmer	-11.4271
▁sample	-11.4276
▁700	-11.4276
▁poly	-11.4277
▁gadhafi	-11.4284
▁preliminary	-11.4284
▁revenge	-11.4284
inflict	-11.4284
▁pistol	-11.4284
▁tablets	-11.4287
▁inspire	-11.4289
▁nsw	-11.4291
power	-11.4293
▁meters	-11.4304
woman	-11.4307
▁franchise	-11.431
▁abdul	-11.4312
▁ensur	-11.4315
▁insider	-11.4323
▁richardson	-11.4325
▁dining	-11.4332
▁nigerian	-11.4333
▁bend	-11.4334
▁tactics	-11.4336
▁miracle	-11.4336
▁physician	-11.4336
▁charities	-11.4337
▁consent	-11.4337
▁dignit	-11.4338
▁reject	-11.4345
▁levi	-11.4346
▁divided	-11.4351
▁cristiano	-11.4363
▁terrifying	-11.4363
▁chapter	-11.4364
▁container	-11.4371
questioning	-11.4375
▁earning	-11.4375
▁rapid	-11.4376
-10	-11.438
▁analys	-11.4382
▁formation	-11.4387
▁vladimir	-11.4389
▁haunt	-11.4389
▁fog	-11.4394
▁bolton	-11.4395
dell	-11.4397
step	-11.4397
▁thus	-11.4404
wind	-11.4406
▁lanka	-11.4409
fish	-11.4411
▁wages	-11.4412
▁brace	-11.4413
▁cemetery	-11.4415
▁consumption	-11.4415
▁automatically	-11.4415
▁kidnapped	-11.4416
▁tokyo	-11.4416
▁fertil	-11.4416
breaking	-11.4418
▁burden	-11.442
▁devoted	-11.4422
▁hunger	-11.4436
powered	-11.4438
▁cheaper	-11.444
▁volcano	-11.444
-19	-11.4441
▁sufficient	-11.4442
▁reopen	-11.4442
▁cottage	-11.4442
▁parliamentar	-11.4447
▁boris	-11.4451
▁measur	-11.4453
dog	-11.446
▁northeast	-11.4467
▁lancashire	-11.4468
▁neglect	-11.4468
▁supplier	-11.4468
▁tehran	-11.4468
▁louisiana	-11.4468
▁presidency	-11.4468
▁kurdish	-11.4469
iro	-11.4469
▁bernard	-11.447
▁kyle	-11.447
catching	-11.4472
▁alien	-11.4476
▁rope	-11.4485
▁campaigners	-11.4489
▁hacking	-11.4489
▁attribut	-11.4495
▁claire	-11.4495
▁twenty	-11.4495
▁queensland	-11.4495
▁retire	-11.4498
▁item	-11.4503
▁announc	-11.4503
▁deliberately	-11.4505
ego	-11.4515
▁tsa	-11.4516
▁advisor	-11.4518
▁photography	-11.4519
▁somewhat	-11.4522
▁nevada	-11.4522
lop	-11.4523
▁memo	-11.4525
▁bolt	-11.4532
aka	-11.454
aya	-11.4548
▁lennon	-11.4548
drift	-11.455
▁drain	-11.455
▁demo	-11.455
▁racism	-11.455
▁ingredients	-11.4553
▁pea	-11.4573
▁threaten	-11.4573
▁harbour	-11.4575
▁deteriorat	-11.4575
▁whistle	-11.4575
▁abandon	-11.4575
▁snapped	-11.4577
▁existence	-11.4578
▁contestant	-11.4578
nova	-11.4581
▁grill	-11.4583
kell	-11.4583
▁delight	-11.4591
▁morris	-11.46
▁comprehensive	-11.4602
▁confused	-11.4602
▁smuggle	-11.4602
▁farage	-11.4604
vir	-11.4604
▁equality	-11.4606
▁testify	-11.4607
▁broadcaster	-11.4615
▁touching	-11.462
▁charter	-11.4628
▁artificial	-11.4629
▁phrase	-11.4629
▁samantha	-11.4629
▁goodbye	-11.4629
▁adoption	-11.4633
▁consecutive	-11.4656
▁ivory	-11.4656
▁highlighted	-11.4657
▁larry	-11.4657
▁undermine	-11.466
▁cleaning	-11.466
▁steer	-11.466
▁overweight	-11.4665
▁context	-11.4683
▁storage	-11.4683
▁denis	-11.4687
▁graduated	-11.469
▁candle	-11.4694
ground	-11.4703
▁chatt	-11.4705
▁horizon	-11.471
▁psychologist	-11.471
▁colin	-11.4725
▁triggered	-11.4732
boat	-11.4733
▁openly	-11.4735
▁manipulat	-11.4737
▁cdc	-11.4738
▁insight	-11.4746
▁hike	-11.4755
▁boil	-11.476
▁accelerat	-11.4765
▁fossil	-11.4765
▁handcuff	-11.4765
▁harvard	-11.4765
▁mysterious	-11.4765
▁volume	-11.4765
▁tyler	-11.4766
▁sauce	-11.4767
donnell	-11.4768
▁travelers	-11.4769
ois	-11.4772
gna	-11.4776
roud	-11.4777
▁meteor	-11.4792
▁furniture	-11.4792
▁montgomery	-11.4792
▁surrender	-11.4792
nominated	-11.4792
▁exceed	-11.4792
▁serbia	-11.4793
▁greet	-11.4799
▁fastest	-11.4801
▁dal	-11.4803
▁exceptional	-11.4803
stage	-11.4804
▁supporter	-11.4806
loft	-11.4807
arra	-11.4809
▁apologised	-11.4817
▁confronted	-11.4817
treat	-11.4817
▁djokovic	-11.482
▁correspondent	-11.4822
▁1991	-11.4823
▁rab	-11.4823
▁subway	-11.4824
▁wishes	-11.4828
▁202	-11.4838
evolution	-11.4846
▁homosexual	-11.4847
▁nixon	-11.4847
onso	-11.4863
▁40,000	-11.4864
▁qualifying	-11.4866
responding	-11.4871
western	-11.4875
▁overlook	-11.4875
▁erupted	-11.4875
▁orleans	-11.4875
▁sketch	-11.4875
▁strangl	-11.4875
▁ford	-11.4879
▁researcher	-11.4883
▁authentic	-11.4903
▁militia	-11.4903
▁tribunal	-11.4903
▁voluntar	-11.4903
▁bargain	-11.4903
weight	-11.4903
▁bloom	-11.4903
▁expir	-11.4904
▁rapper	-11.4906
▁accidentally	-11.4911
▁qualify	-11.4912
▁hatch	-11.4916
▁recognized	-11.4919
▁ads	-11.4926
▁universities	-11.493
▁creatures	-11.4935
▁norway	-11.4936
▁alexandria	-11.4937
high	-11.4939
▁disturb	-11.494
▁loaded	-11.4948
▁lew	-11.4948
▁premium	-11.4958
▁abbey	-11.4958
▁casino	-11.4958
▁philipp	-11.4958
▁nichol	-11.4961
standing	-11.4963
amine	-11.4963
▁caption	-11.497
▁julian	-11.4971
▁shooter	-11.4971
▁collector	-11.4972
▁viv	-11.4989
▁firearms	-11.4995
▁250,000	-11.4995
▁comeback	-11.5005
far	-11.5011
▁bare	-11.5011
▁excess	-11.5014
,400	-11.5014
▁accommodation	-11.5014
▁external	-11.5014
▁navigat	-11.5014
▁opera	-11.5015
▁confront	-11.5016
▁freeze	-11.502
cola	-11.5023
lept	-11.5024
▁rebuild	-11.5031
▁trailer	-11.5037
▁briefly	-11.5041
▁whisk	-11.5044
▁damn	-11.5047
obese	-11.5048
▁powell	-11.5048
▁lightning	-11.5052
▁bp	-11.5057
rington	-11.5061
▁twe	-11.5063
▁troop	-11.5066
▁yeah	-11.5072
▁collective	-11.5075
▁cancel	-11.5075
▁reminder	-11.5076
▁lethal	-11.5076
▁distribution	-11.5078
▁passage	-11.5078
▁bennett	-11.5098
▁misconduct	-11.5099
▁uefa	-11.5099
▁snake	-11.5099
▁budd	-11.5101
▁cairo	-11.5102
▁steam	-11.5108
▁sept	-11.5116
stock	-11.5122
▁milli	-11.5126
▁wav	-11.5127
▁handled	-11.5135
occupied	-11.5155
▁cyclist	-11.5155
▁sophisticated	-11.5155
▁arctic	-11.5155
▁lambert	-11.5156
▁crackdown	-11.5156
▁kidney	-11.5157
▁cooperation	-11.5162
▁1,500	-11.5164
▁shah	-11.5165
general	-11.5172
▁authoriz	-11.5172
▁injection	-11.5173
master	-11.5178
bie	-11.5179
▁stark	-11.518
▁instructor	-11.5181
▁nichola	-11.5182
▁chemotherapy	-11.5184
▁fairfax	-11.5184
▁lavish	-11.5184
▁manassas	-11.5184
▁mcilroy	-11.5184
▁unaware	-11.5184
▁joshua	-11.5184
▁generous	-11.5184
▁ripped	-11.5186
▁whi	-11.5186
▁innovation	-11.5188
wig	-11.5199
▁burglary	-11.5199
▁radiation	-11.5212
▁communist	-11.5214
▁resistance	-11.5214
▁joel	-11.5221
▁waist	-11.5223
▁integrat	-11.5235
▁scrutiny	-11.5241
▁bieber	-11.5241
▁respectively	-11.5242
▁7:30	-11.525
▁monte	-11.525
guer	-11.5254
▁audit	-11.5256
▁decent	-11.5257
lick	-11.5263
▁tide	-11.5264
▁shoe	-11.5268
▁humanity	-11.5268
loot	-11.5268
▁component	-11.527
▁dictator	-11.527
▁ferrari	-11.527
▁gabriel	-11.527
▁kardashian	-11.527
▁underneath	-11.527
▁vintage	-11.527
▁pioneer	-11.527
▁unrest	-11.527
▁vocal	-11.527
view	-11.5276
founder	-11.5278
▁nico	-11.529
▁upgrade	-11.5298
▁juvenile	-11.5299
▁vitamin	-11.5299
▁precise	-11.5299
▁airways	-11.5299
▁poet	-11.5299
borne	-11.53
▁disability	-11.5301
▁extremist	-11.5304
usky	-11.5305
▁newborn	-11.5306
▁skirt	-11.5314
russia	-11.5318
cio	-11.5324
▁unidentifi	-11.5328
▁nowhere	-11.5328
osis	-11.5328
▁accent	-11.5328
▁monkey	-11.5329
▁hungry	-11.533
▁decid	-11.5331
▁1988	-11.5333
▁investigator	-11.5334
▁thousand	-11.5334
neill	-11.5347
▁explor	-11.5351
▁excitement	-11.5357
▁sentiment	-11.5357
▁solicitor	-11.5358
▁slipped	-11.5358
dress	-11.5362
▁singh	-11.5366
▁refugee	-11.537
▁dame	-11.5373
kick	-11.5375
iri	-11.5382
▁elaborate	-11.5386
▁predecessor	-11.5386
▁drought	-11.5386
▁sneak	-11.5386
▁jeffrey	-11.5386
▁legendary	-11.5388
▁confrontation	-11.5388
▁councillor	-11.539
▁fry	-11.5399
▁ranked	-11.5399
iq	-11.5403
seller	-11.541
▁tune	-11.5411
dicated	-11.5411
▁stance	-11.5412
▁reunited	-11.5415
▁3-0	-11.5415
▁passionate	-11.5417
▁bai	-11.5421
▁demonstration	-11.5424
looking	-11.5426
▁relat	-11.5427
hara	-11.5434
▁abd	-11.5443
▁expedition	-11.5444
▁spiritual	-11.5445
▁pepper	-11.5445
▁caroline	-11.5446
▁intervene	-11.5448
▁underwater	-11.5456
ault	-11.5457
▁boxer	-11.5457
▁acceptable	-11.5462
▁fleeing	-11.5468
▁offender	-11.5468
▁expansion	-11.5473
▁infamous	-11.5473
▁petraeus	-11.5473
▁coincide	-11.5473
▁purple	-11.5473
▁recognis	-11.5477
▁banner	-11.5484
▁exception	-11.5485
▁scary	-11.5486
▁bianc	-11.549
market	-11.5494
▁persuade	-11.5495
volt	-11.55
▁tee	-11.5503
hampton	-11.5503
▁jews	-11.5503
▁allowance	-11.551
▁sheep	-11.5513
▁unfortunate	-11.5516
▁hugely	-11.5518
▁robertson	-11.5527
▁roberto	-11.553
▁carriage	-11.5532
▁reckless	-11.5532
lc	-11.5532
▁motivation	-11.5535
▁rage	-11.5542
▁pupil	-11.5542
disclosed	-11.5547
▁overturn	-11.5556
▁rubbish	-11.5562
▁czech	-11.5562
▁coffin	-11.5562
▁stripped	-11.5564
▁retreat	-11.557
3.5	-11.5573
ehner	-11.5577
gall	-11.5589
,600	-11.5591
▁affidavit	-11.5591
▁brisbane	-11.5591
▁lancaster	-11.5591
▁monarch	-11.5591
▁regain	-11.5592
▁trash	-11.5593
▁diana	-11.56
▁chave	-11.5603
bias	-11.5611
▁curv	-11.5612
jun	-11.5614
witch	-11.562
▁samuel	-11.5621
▁mohamed	-11.5621
▁nadal	-11.5622
battled	-11.5624
▁supportive	-11.5626
▁creator	-11.5628
▁consideration	-11.5639
▁ellis	-11.5645
four	-11.5649
▁headline	-11.5649
,300	-11.5651
▁perception	-11.5651
▁conceal	-11.5651
▁medium	-11.5651
▁merkel	-11.5654
▁handl	-11.5668
▁glow	-11.5673
▁chad	-11.5674
▁fundraising	-11.5681
▁evacuated	-11.569
▁pep	-11.5694
▁prank	-11.5695
▁moss	-11.5698
▁ignore	-11.5698
amford	-11.5701
white	-11.5703
clusive	-11.571
▁fabregas	-11.5711
▁pellegrin	-11.5711
▁constable	-11.5711
▁ghost	-11.5711
▁charging	-11.5711
▁publicity	-11.5713
▁precious	-11.5713
wide	-11.5713
▁quarterback	-11.5715
▁removal	-11.5719
▁oct	-11.5722
▁underwear	-11.5722
ounce	-11.5729
blown	-11.5737
▁hoffman	-11.5741
gum	-11.5743
▁lucas	-11.5744
▁donation	-11.5746
gareth	-11.5747
▁flock	-11.5749
▁negotiate	-11.5751
olivia	-11.5756
▁bir	-11.5761
spca	-11.5771
▁archaeologist	-11.5771
▁emissions	-11.5771
▁henderson	-11.5771
▁monument	-11.5771
▁paedophile	-11.5771
▁staffordshire	-11.5771
▁kiev	-11.5774
▁blade	-11.5775
▁chapman	-11.5775
▁headache	-11.5776
▁stability	-11.5779
▁commonly	-11.579
▁15,000	-11.5791
▁splash	-11.5793
▁audio	-11.5801
▁lottery	-11.5802
▁casualties	-11.5802
▁attendance	-11.5806
▁1979	-11.5807
▁carroll	-11.5807
▁tackl	-11.5809
▁emerge	-11.5811
▁trek	-11.5813
▁diving	-11.5813
▁mild	-11.5815
▁experienc	-11.5817
▁sharon	-11.5819
operative	-11.582
▁burial	-11.5824
▁barnes	-11.5825
▁lebanon	-11.5832
▁phenomenon	-11.5832
▁remorse	-11.5832
▁orphan	-11.5832
▁creek	-11.5833
▁straw	-11.5834
▁ryder	-11.5834
▁weird	-11.5834
▁spike	-11.5836
▁donate	-11.5841
▁govern	-11.5844
▁whip	-11.5858
▁kara	-11.5859
▁acres	-11.5861
▁prestigious	-11.5863
▁explicit	-11.5863
▁correction	-11.5865
▁eagle	-11.5867
▁1982	-11.5867
alice	-11.5875
three	-11.5876
▁crow	-11.5881
▁bunch	-11.5891
▁serial	-11.5895
▁chuck	-11.5895
▁attendant	-11.5899
▁blogger	-11.5899
▁2018	-11.5899
trial	-11.59
▁exploded	-11.5901
▁vine	-11.5903
▁chin	-11.5908
▁cargo	-11.5913
▁installed	-11.5915
▁pistorius	-11.5924
▁propaganda	-11.5924
▁throne	-11.5924
▁jenkins	-11.5925
▁perceiv	-11.5925
▁pleasure	-11.5925
▁crocodile	-11.5955
▁dialogue	-11.5955
▁vatican	-11.5955
▁aerial	-11.5958
▁juice	-11.5959
▁nude	-11.596
▁25,000	-11.5969
▁thrilled	-11.5969
member	-11.5978
bag	-11.5978
▁farmer	-11.5979
▁antibiotic	-11.5985
▁determination	-11.5985
▁gadget	-11.5985
▁asteroid	-11.5986
▁assume	-11.5995
team	-11.5995
▁instantly	-11.6002
▁risen	-11.6003
▁pok	-11.6004
▁mono	-11.6008
▁canceled	-11.6013
▁mistaken	-11.6014
combe	-11.6016
▁presum	-11.6016
▁abducted	-11.6016
▁superintendent	-11.6016
▁heathrow	-11.6016
▁1986	-11.6022
▁comb	-11.6028
▁luka	-11.6029
▁confine	-11.6041
▁coma	-11.6041
▁glamorous	-11.6048
▁unlawful	-11.6048
▁valencia	-11.6048
▁yield	-11.6048
▁vanished	-11.6048
pardew	-11.6048
▁cater	-11.6048
▁ferry	-11.6049
▁okay	-11.6049
▁leaf	-11.6053
▁showcase	-11.6056
▁von	-11.6061
▁disappointment	-11.6079
▁choosing	-11.6079
▁slogan	-11.6079
▁orlando	-11.6079
▁warrior	-11.6079
▁denmark	-11.6079
lexis	-11.608
▁patron	-11.6082
▁stepping	-11.6083
▁glory	-11.6083
anticipated	-11.6086
▁sunny	-11.6087
▁nobel	-11.6087
▁beast	-11.6087
▁pond	-11.6092
selling	-11.6099
▁surviving	-11.611
▁juventu	-11.611
▁wallace	-11.6112
▁migration	-11.6112
▁grid	-11.6117
▁disappear	-11.6118
▁insect	-11.612
▁weaken	-11.6121
▁instant	-11.6127
▁demonstrated	-11.6134
direct	-11.6138
▁occupy	-11.6141
▁pornography	-11.6141
▁transcript	-11.6141
▁dennis	-11.6142
▁blonde	-11.6142
wall	-11.6142
▁filter	-11.6142
▁savage	-11.6143
▁dunn	-11.6147
▁violated	-11.615
threatening	-11.6155
shift	-11.6158
▁southeast	-11.6158
ucci	-11.616
▁acid	-11.6163
▁kenyan	-11.6168
▁hugo	-11.6169
▁distinct	-11.6171
▁reuters	-11.6173
▁airplane	-11.6173
▁tunisia	-11.6173
▁heaven	-11.6173
▁potato	-11.6173
▁romance	-11.6176
▁wigan	-11.6179
▁doubled	-11.6182
▁reinforc	-11.6184
▁devil	-11.6189
assi	-11.6195
▁graduat	-11.6195
▁breathe	-11.6201
▁companion	-11.6204
▁archive	-11.6204
▁rhode	-11.6204
▁tremendous	-11.6204
▁astonishing	-11.6204
▁spiral	-11.6204
▁laptop	-11.6205
▁shatter	-11.6207
▁install	-11.6212
school	-11.6225
dispatch	-11.6229
▁relie	-11.623
▁releas	-11.6235
▁lecture	-11.6236
▁uncomfortable	-11.6236
▁provok	-11.6236
▁300,000	-11.6236
▁annoy	-11.6236
▁enroll	-11.6237
▁establishment	-11.6241
▁130	-11.6246
▁?"	-11.625
jah	-11.6262
▁clutch	-11.6268
▁centuries	-11.6268
▁thumb	-11.6268
cott	-11.6268
▁naval	-11.6272
▁burglar	-11.6283
allah	-11.6283
▁gag	-11.6288
▁prim	-11.6289
▁travellers	-11.6291
▁coal	-11.6292
▁slice	-11.6293
▁epic	-11.6294
▁helm	-11.6294
▁countryside	-11.6296
▁stranded	-11.6299
▁amnesty	-11.6299
▁intimate	-11.63
▁compil	-11.63
▁steady	-11.6302
▁ethan	-11.6303
▁arranged	-11.6311
▁inject	-11.6311
respected	-11.6313
▁concentration	-11.6314
▁prayer	-11.6318
lated	-11.6323
▁allegation	-11.6324
chief	-11.6325
▁logo	-11.6326
▁deserved	-11.6326
▁oust	-11.6327
▁compassion	-11.6331
▁griffith	-11.6331
▁sturridge	-11.6331
▁slope	-11.6337
▁pitt	-11.6357
▁deputies	-11.6363
▁glimpse	-11.6363
▁mccarthy	-11.6363
▁supplement	-11.6363
▁sculpture	-11.6363
▁wicket	-11.6364
▁cohen	-11.6372
▁breakthrough	-11.6396
▁netanyahu	-11.6396
▁sovereign	-11.6396
▁bubble	-11.6396
▁complications	-11.6396
▁dorset	-11.6396
▁sandwich	-11.6396
▁integrity	-11.6397
▁algeria	-11.6397
▁walsh	-11.6397
▁joan	-11.6398
▁beef	-11.6398
▁heather	-11.6399
▁ugly	-11.6407
▁blanc	-11.6408
▁governing	-11.6412
▁vow	-11.642
▁owe	-11.6423
▁harbor	-11.6423
▁confusion	-11.6428
▁economist	-11.6428
▁norfolk	-11.6428
▁queue	-11.6429
▁rash	-11.643
brand	-11.6431
▁thigh	-11.6432
otto	-11.644
-11	-11.6441
▁guil	-11.6454
▁manufacturing	-11.646
proving	-11.6461
▁vicious	-11.6462
▁ultra	-11.6462
▁durham	-11.6463
issa	-11.6467
▁holly	-11.6468
valu	-11.6471
▁pale	-11.6473
▁murderer	-11.6477
:00	-11.6485
▁creature	-11.649
▁recreation	-11.6493
▁awkward	-11.6493
▁premature	-11.6493
fitting	-11.6494
▁runners	-11.6495
party	-11.6496
▁1984	-11.6498
▁observed	-11.6506
▁idol	-11.6507
storm	-11.6509
▁congo	-11.6511
▁valued	-11.6514
▁axe	-11.6517
▁dortmund	-11.6525
▁reluctant	-11.6525
▁harvey	-11.6525
▁scrambl	-11.6525
▁blunt	-11.6526
▁dylan	-11.6527
▁hardest	-11.6528
▁fda	-11.6529
▁realistic	-11.6534
▁hob	-11.6538
1.4	-11.6542
▁assumed	-11.6548
▁fantasy	-11.6558
▁maintenance	-11.6558
▁undercover	-11.6558
▁ramsey	-11.6559
▁puert	-11.6561
friendly	-11.6564
▁convince	-11.6569
▁3-1	-11.6572
▁torch	-11.6578
▁gunmen	-11.6583
▁speculat	-11.6587
▁distraught	-11.6591
▁epidemic	-11.6591
▁jerusalem	-11.6591
▁worship	-11.6591
▁steep	-11.6591
kova	-11.6593
▁shipping	-11.6595
wave	-11.6616
▁habitat	-11.6619
▁restored	-11.6619
ndon	-11.6621
▁unsuccessful	-11.6624
▁invitation	-11.6624
▁squeeze	-11.6624
▁historian	-11.6624
▁bashar	-11.6624
▁streak	-11.6624
lbeck	-11.6625
▁educational	-11.6625
▁pursuit	-11.6627
▁fond	-11.663
kill	-11.6634
▁relieved	-11.6637
▁examiner	-11.6644
▁disciplinar	-11.6657
▁dynamic	-11.6657
▁shanghai	-11.6657
▁unhappy	-11.6657
▁feather	-11.6657
▁norwich	-11.6657
▁schoolgirl	-11.6658
reilly	-11.6659
▁brotherhood	-11.6661
▁interim	-11.6665
▁mentor	-11.6674
▁perez	-11.6679
▁ammunition	-11.669
▁identical	-11.669
▁mayweather	-11.669
▁separatist	-11.669
▁retriev	-11.669
▁croatia	-11.669
▁scatter	-11.669
▁tipped	-11.6692
▁skate	-11.6699
century	-11.6705
▁rica	-11.6708
vu	-11.6714
▁gradually	-11.6723
▁grenade	-11.6723
▁lesbian	-11.6723
▁fulfill	-11.6723
▁breastfeed	-11.6723
▁stanley	-11.6724
▁assassination	-11.6725
▁humor	-11.6725
▁endors	-11.6726
7.5	-11.6735
▁penny	-11.6735
▁forecaster	-11.6741
▁embarrassed	-11.6756
▁temporaril	-11.6756
▁handgun	-11.6756
▁hashtag	-11.6756
▁hormone	-11.6756
▁wrongdoing	-11.6756
▁placing	-11.6756
▁pleading	-11.6757
▁nonprofit	-11.6757
▁molest	-11.6758
▁valid	-11.6758
▁kil	-11.6758
:15	-11.6763
plus	-11.6764
▁curl	-11.6765
▁manning	-11.6771
▁publisher	-11.6774
▁eliminate	-11.6775
productive	-11.6783
▁promoted	-11.6787
▁topped	-11.6789
▁powder	-11.679
▁thames	-11.679
▁renown	-11.6791
▁slump	-11.6792
▁breakdown	-11.6795
▁ownership	-11.6795
titled	-11.6807
▁spie	-11.681
▁invad	-11.6814
▁laboratory	-11.6823
metre	-11.6824
▁define	-11.6824
▁elder	-11.6826
knit	-11.6826
▁abdullah	-11.6857
▁toronto	-11.6857
▁ninth	-11.6858
▁lounge	-11.6858
▁tension	-11.6866
▁quest	-11.6872
evaluat	-11.6879
phone	-11.688
▁gibson	-11.6891
▁festive	-11.6891
▁spacecraft	-11.6892
▁cheshire	-11.6892
▁ferdi	-11.6893
▁vary	-11.6894
▁occasionally	-11.6894
▁obamacare	-11.6897
▁pav	-11.6906
▁hometown	-11.6916
▁extract	-11.6922
enko	-11.6923
▁innocence	-11.6925
▁skeleton	-11.6925
▁transaction	-11.6925
▁natalie	-11.6925
▁outlets	-11.6926
▁franklin	-11.693
▁preston	-11.6931
▁paw	-11.6932
▁litter	-11.6933
▁5.5	-11.6937
▁washing	-11.6941
▁oppose	-11.6941
▁julia	-11.6945
forming	-11.6948
▁enterprise	-11.6959
▁unnecessary	-11.6959
▁estranged	-11.6959
▁perpetrat	-11.6959
▁prescrib	-11.6959
rak	-11.6961
▁blew	-11.6962
solved	-11.697
▁ignor	-11.697
▁hiring	-11.6979
▁60,000	-11.698
▁impose	-11.6984
▁soap	-11.699
▁agriculture	-11.6993
▁lieutenant	-11.6993
▁portuguese	-11.6993
▁rafael	-11.6993
▁cuddl	-11.6993
▁brink	-11.6994
▁shiite	-11.6995
▁superb	-11.6996
▁survivor	-11.6996
▁pint	-11.7
▁cass	-11.7004
▁blend	-11.7006
▁bulgaria	-11.7009
▁underway	-11.7011
1.1	-11.7013
▁carney	-11.7019
▁alexandr	-11.7021
▁safer	-11.7024
▁certificate	-11.7027
▁orchestra	-11.7027
▁recycl	-11.7027
▁lampard	-11.7028
▁objective	-11.7031
▁siege	-11.7034
plague	-11.7051
▁benghazi	-11.7061
▁anxious	-11.7061
▁rosie	-11.7062
▁crisp	-11.7062
▁unbelievable	-11.7064
▁confidential	-11.7067
▁confession	-11.7068
▁observation	-11.7069
home	-11.7071
▁accord	-11.7084
▁arlington	-11.7096
▁mediterranean	-11.7096
▁humble	-11.7096
▁vomit	-11.7096
▁copies	-11.7097
▁fulham	-11.7098
▁rubber	-11.7098
▁labell	-11.71
goers	-11.7101
▁pageant	-11.7107
▁bible	-11.7109
▁preferred	-11.711
▁interaction	-11.7111
▁delta	-11.7112
shack	-11.7122
▁enemies	-11.7131
▁hockey	-11.7131
▁primarily	-11.7131
▁richmond	-11.7132
▁delhi	-11.7134
▁salad	-11.7148
▁horrifi	-11.7159
▁intelligent	-11.7165
▁freezing	-11.7166
▁mutual	-11.7166
▁citizenship	-11.7167
▁clarkson	-11.7171
▁workplace	-11.7175
▁organic	-11.7178
▁earl	-11.719
▁lucki	-11.72
▁suffolk	-11.72
▁gardner	-11.72
▁simulat	-11.72
pouring	-11.7202
▁bucket	-11.7204
▁artwork	-11.7205
▁revive	-11.7205
slav	-11.7206
▁hugh	-11.7216
fest	-11.7222
▁shov	-11.7223
▁washed	-11.7223
▁calculate	-11.7229
court	-11.7235
▁mammal	-11.7235
▁stefan	-11.7235
▁conceiv	-11.7236
▁pippa	-11.7237
▁chasing	-11.7239
▁workout	-11.7267
▁uncertain	-11.7269
▁telescope	-11.727
▁diverse	-11.7272
▁feedback	-11.7272
▁sheikh	-11.7274
▁array	-11.7275
:45	-11.7275
▁morrison	-11.7277
▁1985	-11.7278
▁valentine	-11.7285
▁bulg	-11.7292
▁chap	-11.7295
▁laser	-11.7295
▁fatally	-11.73
▁argentine	-11.7305
▁freak	-11.7305
arsene	-11.7306
▁touchdown	-11.7308
▁parish	-11.7309
calcul	-11.7311
▁assembl	-11.7324
▁guilt	-11.7327
▁contemporary	-11.7341
▁gonzalez	-11.7341
▁pollution	-11.7341
▁oprah	-11.7341
▁lynch	-11.7343
camp	-11.7347
▁poche	-11.7357
▁controller	-11.7357
▁kensington	-11.7376
▁rabbit	-11.7376
▁collide	-11.7378
▁declaration	-11.7379
trent	-11.7379
▁ramos	-11.7382
▁350	-11.7385
▁bald	-11.7388
▁dishes	-11.7389
▁eco	-11.7404
▁vick	-11.7407
connor	-11.7409
▁applaud	-11.7412
▁brigade	-11.7412
▁embark	-11.7412
▁repay	-11.7414
▁chapel	-11.7416
▁salon	-11.7418
▁shaking	-11.7418
▁jackie	-11.7422
▁element	-11.7422
▁expense	-11.7423
▁jess	-11.744
▁180	-11.7441
▁happily	-11.7447
▁distinguish	-11.7447
▁penguin	-11.7447
▁isolation	-11.7448
▁kenny	-11.7448
▁gregory	-11.7448
▁nepal	-11.7448
▁mainstream	-11.7448
▁patt	-11.7449
qi	-11.7453
06	-11.7455
▁lime	-11.7464
▁140	-11.7475
▁ratio	-11.7477
▁ambitious	-11.7483
▁database	-11.7483
▁protocol	-11.7483
▁sanctuary	-11.7483
▁sebastian	-11.7483
▁manifest	-11.7483
▁indecent	-11.7483
▁renovat	-11.7484
▁pix	-11.7485
▁obligation	-11.7485
▁accuse	-11.7488
▁maj	-11.7492
▁impress	-11.7493
▁mouse	-11.7494
bow	-11.7501
hua	-11.7502
▁courthouse	-11.751
enact	-11.7517
▁bergdahl	-11.7519
▁occupation	-11.7519
▁olympia	-11.7519
▁overwhelmed	-11.7519
aternity	-11.7519
▁plug	-11.752
▁interactive	-11.7521
▁curious	-11.7521
▁tampa	-11.7522
▁luther	-11.7524
▁ranch	-11.7527
▁console	-11.753
font	-11.753
▁drunken	-11.7531
▁boundar	-11.7536
▁1-1	-11.7538
▁cleaner	-11.754
▁visitor	-11.7542
mounted	-11.7543
commerce	-11.7555
▁puppy	-11.7555
▁exclud	-11.7555
▁swedish	-11.7555
▁hudson	-11.7555
▁partially	-11.7556
▁pieterse	-11.7556
▁vogue	-11.7556
▁chunk	-11.7556
▁denial	-11.7558
▁suburban	-11.7562
▁monk	-11.7566
▁revis	-11.7577
cloth	-11.758
▁fundraiser	-11.7592
▁identification	-11.7592
▁segment	-11.7592
▁shuttle	-11.7592
▁jazz	-11.7594
▁bodi	-11.7596
▁momentum	-11.7603
▁legion	-11.7615
▁playoff	-11.7618
flight	-11.7624
obsessed	-11.7628
▁nephew	-11.7628
▁dawson	-11.7628
▁mourner	-11.7628
▁frost	-11.7628
ndra	-11.7629
serving	-11.763
▁wilkins	-11.763
▁cruelty	-11.763
▁secondary	-11.7631
▁bowie	-11.7635
drew	-11.7636
▁displac	-11.7639
▁conclude	-11.7643
▁addresses	-11.7658
▁grandson	-11.7658
,800	-11.7664
reaches	-11.7664
▁administrative	-11.7664
▁worcester	-11.7664
▁qualification	-11.7665
▁spoil	-11.7665
▁aisle	-11.7669
▁successor	-11.767
▁johan	-11.7673
▁fancy	-11.7673
▁jake	-11.7678
▁vett	-11.7697
▁rihanna	-11.7701
▁stroll	-11.7705
▁pedro	-11.7706
russian	-11.7707
▁2,500	-11.7709
▁flame	-11.7714
▁erect	-11.7714
▁conventional	-11.7716
▁vall	-11.7717
▁eliminat	-11.7718
▁broader	-11.7721
▁lance	-11.7725
quarter	-11.7735
▁brewer	-11.7738
▁overdose	-11.7739
father	-11.7739
▁hyper	-11.7739
▁socie	-11.7739
▁irre	-11.7744
▁undertake	-11.7749
thirds	-11.775
▁terrace	-11.7751
▁sochi	-11.7757
▁dial	-11.7758
traumati	-11.777
▁arkansas	-11.7775
▁austerity	-11.7775
▁motorcycle	-11.7775
▁wardrobe	-11.7775
▁equipp	-11.7775
▁precaution	-11.7775
▁trousers	-11.7775
▁espn	-11.7775
▁madison	-11.7776
▁marina	-11.7791
▁indonesian	-11.7794
mobile	-11.78
▁phillip	-11.7807
▁crawl	-11.7807
▁jesse	-11.7809
▁dakota	-11.7812
▁ecuador	-11.7812
▁instinct	-11.7812
▁yahoo	-11.7812
▁pipeline	-11.7812
▁trademark	-11.7813
built	-11.7821
▁1977	-11.7821
▁cox	-11.7821
▁booth	-11.7823
▁discharged	-11.7824
▁combine	-11.7829
▁rescuer	-11.7831
▁bali	-11.7831
▁shine	-11.7845
▁administer	-11.7849
▁imprisonment	-11.7849
▁reservation	-11.7849
▁suitcase	-11.7849
▁transparency	-11.7849
,700	-11.7849
▁glenn	-11.7861
▁withdrawal	-11.7864
▁burton	-11.7864
plat	-11.7866
▁disruption	-11.7866
stating	-11.7869
▁swallow	-11.7872
▁consistently	-11.7875
heim	-11.7876
▁eddie	-11.7879
▁engag	-11.7879
▁abduction	-11.7886
▁anonymity	-11.7886
▁believing	-11.7886
▁160	-11.7887
▁lovers	-11.7888
▁workshop	-11.7888
▁distinctive	-11.7888
detach	-11.7889
▁curb	-11.7894
▁stack	-11.7906
▁christin	-11.7908
▁scorer	-11.7912
▁accompany	-11.7924
▁halloween	-11.7924
▁norwegian	-11.7924
▁stylish	-11.7924
▁backlash	-11.7924
▁inquiries	-11.7924
▁stanford	-11.7924
▁flick	-11.7927
dicted	-11.7933
▁detonat	-11.7935
▁finn	-11.794
▁victorian	-11.7941
▁ballet	-11.7951
▁ashes	-11.796
▁emphasis	-11.7961
▁lucrative	-11.7961
▁servant	-11.7961
▁snatch	-11.7961
▁circus	-11.7962
▁laughter	-11.7968
▁1987	-11.7969
▁commentary	-11.7973
▁2020	-11.7977
▁unveil	-11.7983
check	-11.7983
▁gambling	-11.7999
▁istanbul	-11.7999
▁mandatory	-11.7999
▁qualifier	-11.7999
▁donetsk	-11.7999
▁uncertainty	-11.8001
▁supervisor	-11.8002
▁resolved	-11.8003
▁weakness	-11.8003
▁1974	-11.8006
▁explorer	-11.8031
▁kilo	-11.8032
sight	-11.8032
▁adequate	-11.8037
▁dinosaur	-11.8037
▁optimistic	-11.8037
▁comply	-11.8037
▁transit	-11.8039
▁superstar	-11.8041
▁mandate	-11.8042
▁1968	-11.8045
trust	-11.8047
▁awake	-11.8053
natal	-11.8056
▁150,000	-11.8057
▁wow	-11.8067
▁harass	-11.8073
▁1969	-11.8075
grown	-11.8077
▁tailor	-11.8077
▁unemployed	-11.8084
achiev	-11.8084
▁hackers	-11.8085
▁1940	-11.8086
▁roar	-11.8088
▁colon	-11.8096
▁suitable	-11.8096
▁tyr	-11.81
▁archbishop	-11.8113
▁katherine	-11.8113
▁reynolds	-11.8113
▁spaniard	-11.8113
▁quantit	-11.8113
▁depriv	-11.8114
▁spree	-11.8115
▁cleric	-11.8115
oxide	-11.8116
▁knot	-11.8118
▁feb	-11.8125
▁purse	-11.8125
▁innovati	-11.8127
▁merit	-11.8128
fact	-11.813
▁skies	-11.8136
▁yemeni	-11.8139
▁sake	-11.8142
▁cried	-11.815
▁vigil	-11.815
▁eurozone	-11.8151
▁shepherd	-11.8151
▁strauss	-11.8151
▁rehabilitation	-11.8152
▁quake	-11.8154
▁commentator	-11.8156
▁1.6	-11.8161
▁sustainable	-11.8162
▁counties	-11.8165
▁110	-11.8172
▁rust	-11.8177
▁manufacture	-11.8178
▁somali	-11.8183
▁bake	-11.8188
▁sympathy	-11.819
▁reliable	-11.819
▁cheryl	-11.819
▁sanders	-11.819
▁semifinal	-11.8191
▁geneva	-11.8193
▁toast	-11.8194
▁transformation	-11.8197
▁harmful	-11.8199
▁relate	-11.8202
▁requir	-11.8204
▁clap	-11.8205
▁lemon	-11.8219
▁daley	-11.822
▁organiser	-11.8223
▁assassin	-11.8226
▁carnival	-11.8229
▁profound	-11.8229
▁overhaul	-11.8229
▁barrister	-11.8229
▁bulk	-11.823
▁hammond	-11.8231
▁ashamed	-11.8231
▁europa	-11.8233
▁tommy	-11.8235
▁sadden	-11.8237
▁fortunate	-11.8243
▁mata	-11.8246
▁slash	-11.826
after	-11.8261
1.8	-11.8264
▁bash	-11.8264
▁twi	-11.8267
▁elegant	-11.8267
▁decrease	-11.8267
exempt	-11.8267
intensity	-11.8267
▁robust	-11.8267
▁dvd	-11.8267
▁ebay	-11.8268
▁betray	-11.8268
▁declare	-11.827
▁darling	-11.8278
▁liam	-11.8291
▁suspend	-11.8291
hearted	-11.8299
▁absorb	-11.8306
▁intellectual	-11.8306
▁rhetoric	-11.8306
▁deportation	-11.8306
▁timoth	-11.8306
▁prostitution	-11.8307
▁hopkins	-11.8308
▁reflection	-11.8315
▁manual	-11.8327
morph	-11.8332
▁employer	-11.8334
▁pedestrian	-11.8345
▁vaccinat	-11.8345
▁cardinal	-11.8345
▁ghana	-11.8346
▁introduction	-11.8346
▁lorry	-11.8346
▁rubble	-11.8347
▁martha	-11.8348
▁broadway	-11.835
▁grain	-11.8355
▁interact	-11.8358
▁dorm	-11.8371
▁1,200	-11.8383
▁destin	-11.8384
▁condolences	-11.8384
▁evacuation	-11.8384
▁mubarak	-11.8384
▁recipient	-11.8384
▁abraham	-11.8385
▁melissa	-11.8385
▁floral	-11.8385
▁declar	-11.8386
▁acute	-11.8386
▁colonel	-11.8387
▁felip	-11.8388
▁colourful	-11.8393
▁lamp	-11.8394
▁troll	-11.8395
▁stern	-11.8407
▁dirt	-11.8408
▁submit	-11.8418
▁neo	-11.8419
▁obstruct	-11.8424
▁awesome	-11.8424
▁tmz	-11.8424
▁swimmer	-11.8427
▁banana	-11.843
▁1981	-11.843
▁portland	-11.8434
architecture	-11.8435
▁romanian	-11.8445
▁branches	-11.8446
psg	-11.8448
▁outlook	-11.8463
▁harvest	-11.8463
▁checkpoint	-11.8466
craft	-11.8466
▁klo	-11.8481
▁diary	-11.8482
chased	-11.8489
▁contr	-11.8493
▁filmmaker	-11.8497
▁tolerate	-11.8497
▁contradict	-11.8503
▁interrupt	-11.8503
▁uprising	-11.8504
▁whitney	-11.8504
▁torres	-11.8505
stream	-11.8507
▁oversight	-11.8513
▁iceland	-11.8515
▁remark	-11.8523
▁travi	-11.8524
▁kru	-11.8524
▁katy	-11.8527
▁hurl	-11.8535
chair	-11.8538
bird	-11.8538
▁eruption	-11.8543
▁slaughter	-11.8543
▁thief	-11.8543
mistress	-11.8543
▁nypd	-11.8543
wolves	-11.8543
▁ethics	-11.8543
▁abusive	-11.8543
▁absent	-11.8543
▁blatter	-11.8543
▁deleted	-11.8543
▁fingerprint	-11.8543
▁joking	-11.8549
▁injur	-11.8551
lashed	-11.8551
abou	-11.8557
▁empower	-11.8574
▁correspond	-11.8575
▁amber	-11.858
▁balcony	-11.8583
▁zimbabwe	-11.8583
▁francois	-11.8583
▁warehouse	-11.8583
▁cotton	-11.8584
▁flies	-11.8584
▁pearl	-11.8585
▁coral	-11.8588
jack	-11.8623
▁kelley	-11.8624
▁exploration	-11.8627
▁nursery	-11.8629
▁rudd	-11.8629
▁feat	-11.8632
▁ashton	-11.8634
worm	-11.8638
▁sandra	-11.8642
▁forbes	-11.8645
figure	-11.8649
spinal	-11.8651
▁cowell	-11.8653
written	-11.8653
security	-11.8653
▁corrupt	-11.866
▁basket	-11.8663
▁703-7	-11.8663
▁bicycle	-11.8663
▁persistent	-11.8663
▁ritual	-11.8663
▁barca	-11.8663
▁nanny	-11.8664
▁memoir	-11.8665
▁bidding	-11.8665
▁omar	-11.8667
▁gad	-11.867
reader	-11.8673
storey	-11.8677
▁heroic	-11.8679
▁divide	-11.8682
▁healthier	-11.8685
▁surfer	-11.8691
▁jihadi	-11.8693
▁electro	-11.8693
rained	-11.8693
▁psycho	-11.8696
husband	-11.8699
▁spice	-11.87
▁buffalo	-11.8704
▁cowboy	-11.8704
▁embarrassment	-11.8704
▁grandparents	-11.8704
▁obstacle	-11.8704
▁bikini	-11.8704
▁seoul	-11.8704
▁interrogat	-11.8704
▁incentive	-11.8704
▁lyrics	-11.8704
tyre	-11.8707
▁victories	-11.8707
▁tripoli	-11.8708
▁captive	-11.8708
croft	-11.8709
▁churchill	-11.8712
▁invite	-11.8726
▁presentation	-11.873
▁chew	-11.8733
lapse	-11.8738
▁blackpool	-11.8745
▁holocaust	-11.8745
▁unpaid	-11.8745
▁fireworks	-11.8745
▁extinct	-11.8745
▁permitted	-11.8747
▁hague	-11.8749
▁jade	-11.8753
▁cambodia	-11.8785
▁frightened	-11.8785
▁shook	-11.8785
clement	-11.8786
▁urine	-11.879
ordinat	-11.8795
stow	-11.8798
▁cough	-11.8805
▁vale	-11.8808
▁garr	-11.8815
▁kidnap	-11.8825
▁bangladesh	-11.8826
▁deceased	-11.8826
▁veterinar	-11.8826
▁whereabouts	-11.8826
▁chick	-11.8826
▁bankruptcy	-11.8827
▁gloucestershire	-11.8827
conserv	-11.8827
▁banning	-11.8835
kirts	-11.8846
▁contrar	-11.8862
dknapp	-11.8867
▁credibility	-11.8867
▁shareholders	-11.8867
▁lindsay	-11.8867
▁depressed	-11.8868
▁santos	-11.8868
eight	-11.8868
▁dispers	-11.8869
▁safeguard	-11.8869
▁nasty	-11.8872
▁coleman	-11.8883
▁360	-11.8883
▁tighten	-11.8891
wanted	-11.8892
▁donna	-11.8902
▁discriminat	-11.8906
▁heartbroken	-11.8909
▁jamaica	-11.8909
▁extradition	-11.8909
▁sherwood	-11.8909
▁spouse	-11.8909
▁boycott	-11.8911
nock	-11.8923
▁epi	-11.8929
▁conspir	-11.8932
▁jewel	-11.8933
▁rico	-11.895
▁curiosity	-11.895
▁excavat	-11.895
▁luggage	-11.895
▁transparent	-11.895
▁plymouth	-11.895
▁worries	-11.895
▁parkinson	-11.895
▁turtle	-11.8951
▁enquir	-11.8951
▁tribal	-11.8951
▁gunfire	-11.8954
▁flare	-11.897
▁wang	-11.8977
▁introduc	-11.8983
▁gul	-11.8985
▁antarctic	-11.8992
▁cautious	-11.8992
▁diversity	-11.8992
▁fletcher	-11.8992
▁starbucks	-11.8992
▁gunners	-11.8992
▁leesburg	-11.8993
▁1983	-11.8998
osama	-11.8999
lihood	-11.8999
▁battlefield	-11.9002
▁haram	-11.9008
▁joann	-11.9013
▁sufferers	-11.9016
▁rental	-11.9018
▁240	-11.9018
▁collaborat	-11.9025
▁hello	-11.9026
1,1	-11.9027
▁wallet	-11.903
▁mineral	-11.9031
▁thieves	-11.9034
▁rupert	-11.9034
▁shelves	-11.9034
▁copyright	-11.9035
▁monetar	-11.9035
▁journalism	-11.9037
▁replac	-11.904
▁1975	-11.904
qaeda	-11.9074
▁imminent	-11.9076
▁mechanism	-11.9076
▁miranda	-11.9076
▁philosophy	-11.9076
▁sainsbury	-11.9076
▁6-4	-11.9082
▁beatles	-11.9089
▁hedge	-11.909
▁falcon	-11.9101
▁gloucester	-11.9118
▁ambush	-11.9118
▁baptist	-11.9118
▁constituenc	-11.9118
▁contributing	-11.9118
▁participating	-11.9118
▁puzzle	-11.9118
▁unleash	-11.9118
▁compris	-11.9118
▁ethical	-11.9118
▁montana	-11.9118
▁debora	-11.9123
▁javi	-11.9127
bull	-11.9128
speaks	-11.9156
▁parachute	-11.916
▁shotgun	-11.916
▁madeleine	-11.916
▁relocat	-11.916
wield	-11.9161
▁postpone	-11.9161
▁canyon	-11.9162
▁reef	-11.9164
▁dragon	-11.917
▁richest	-11.9171
▁calf	-11.9171
▁colombian	-11.9177
▁mainland	-11.9178
▁erik	-11.9181
▁romania	-11.9189
▁impos	-11.9193
ohn	-11.9197
▁altogether	-11.9203
▁fatigue	-11.9203
▁thanksgiving	-11.9203
▁inevitable	-11.9205
▁jenny	-11.9206
▁regiment	-11.9206
▁pleasant	-11.9207
▁outrageous	-11.9207
tended	-11.9209
▁kilometre	-11.9216
▁behave	-11.9218
wyn	-11.9233
,200	-11.9242
▁accommodate	-11.9246
▁vienna	-11.9246
observatory	-11.9246
▁myanmar	-11.9246
▁evict	-11.9248
▁stint	-11.9248
▁verbal	-11.9248
▁maxim	-11.925
▁skinny	-11.9253
▁6-3	-11.9258
brien	-11.9263
affects	-11.9277
▁cockpit	-11.9289
▁decisive	-11.9289
▁animated	-11.9289
▁glitter	-11.9289
▁bmw	-11.9289
▁plummet	-11.9289
▁chopp	-11.9291
sleeve	-11.9291
scular	-11.9295
story	-11.9297
▁boko	-11.9299
▁gallon	-11.9312
▁deliberate	-11.9315
▁damascus	-11.9332
▁ethiopia	-11.9332
▁diminish	-11.9332
▁dominant	-11.9332
▁hurdle	-11.9332
▁tongue	-11.9334
▁sperm	-11.9335
▁prolong	-11.934
▁progressive	-11.9342
▁serie	-11.9344
▁choke	-11.9347
▁malaysian	-11.9361
▁apologiz	-11.9363
leaning	-11.9367
▁tub	-11.9369
▁trillion	-11.9375
▁typhoon	-11.9375
▁staple	-11.9375
▁minimal	-11.9375
▁flank	-11.9376
▁fetch	-11.9376
▁capability	-11.9377
▁plaza	-11.9379
▁1978	-11.9382
▁roam	-11.9384
▁approve	-11.9397
speed	-11.9401
▁fifty	-11.9418
▁investigative	-11.9418
▁transgender	-11.9418
▁floyd	-11.9418
▁beverage	-11.9419
▁earliest	-11.9419
▁consciousness	-11.9419
▁priorities	-11.9421
▁motorway	-11.9424
▁collaboration	-11.9428
▁brake	-11.9433
▁lindse	-11.9436
▁papa	-11.9448
▁electoral	-11.9462
▁reassure	-11.9462
▁televised	-11.9462
▁mosul	-11.9463
▁neighbourhood	-11.9463
president	-11.9463
▁password	-11.9464
meyer	-11.9464
▁heartbreaking	-11.9465
▁neville	-11.9465
▁accessible	-11.9467
▁slap	-11.9469
shabaa	-11.9469
▁crist	-11.947
▁mama	-11.9471
▁refund	-11.9473
▁raj	-11.9492
▁prediction	-11.9493
▁bahrain	-11.9506
▁frustrating	-11.9506
▁hamstring	-11.9506
▁neutral	-11.9506
▁siberia	-11.9506
▁weiner	-11.9509
▁continuous	-11.9511
▁sunset	-11.9512
▁watt	-11.9519
▁equalis	-11.9533
▁dwarf	-11.955
▁imprisoned	-11.955
▁jealous	-11.955
▁technician	-11.955
▁exotic	-11.955
censor	-11.955
▁brent	-11.9554
strong	-11.9554
boro	-11.956
▁1967	-11.956
▁foley	-11.9561
▁loop	-11.9562
▁cookie	-11.9563
zzo	-11.9565
▁1930	-11.9571
▁zip	-11.9571
midst	-11.9571
▁searche	-11.9576
clad	-11.9592
▁taiwan	-11.9594
▁retiring	-11.9594
▁jungle	-11.9594
▁gingrich	-11.9594
▁airbus	-11.9595
▁weinstein	-11.9595
▁gilbert	-11.9595
▁revolutionar	-11.9603
turk	-11.9606
▁christina	-11.9607
▁columb	-11.9616
belle	-11.962
▁stray	-11.9625
▁trim	-11.9627
ritz	-11.9628
▁acquitted	-11.9639
▁distant	-11.9639
▁backpack	-11.9639
▁kei	-11.9639
▁relegation	-11.964
▁frantic	-11.9642
▁rile	-11.9644
supervis	-11.9658
fortunately	-11.9662
▁brooke	-11.9666
▁deploy	-11.9672
▁adelaide	-11.9683
▁implications	-11.9683
▁mclaren	-11.9683
▁silicon	-11.9683
▁blessed	-11.9684
▁cannon	-11.9685
▁bravery	-11.9689
▁representation	-11.9692
▁mature	-11.9693
▁cosmetic	-11.9693
▁crater	-11.9693
▁junk	-11.9695
magnitude	-11.9728
▁amsterdam	-11.9728
▁memorable	-11.9728
▁psychiatric	-11.9728
▁refresh	-11.9728
▁retaliat	-11.9728
▁flesh	-11.9728
▁reunion	-11.9728
▁participation	-11.9728
▁stitche	-11.9729
▁cherry	-11.973
▁trunk	-11.973
▁asthma	-11.9739
apova	-11.9764
spite	-11.9766
▁blur	-11.9767
▁evident	-11.9773
▁threshold	-11.9773
▁policing	-11.9773
ilateral	-11.9776
▁1973	-11.9782
▁1964	-11.9783
▁tun	-11.9796
▁originat	-11.9807
cross	-11.9808
▁jihad	-11.9815
▁hussein	-11.9818
▁immense	-11.9818
▁legislative	-11.9818
▁obscur	-11.9818
▁cardiac	-11.9819
mortem	-11.9819
▁jewelry	-11.982
▁deployment	-11.9821
▁slur	-11.9822
▁valeri	-11.9826
▁snp	-11.9829
national	-11.9838
writer	-11.9857
▁winston	-11.9859
▁cuomo	-11.9864
▁industries	-11.9864
▁misdemeanor	-11.9864
▁organizers	-11.9864
▁bentley	-11.9864
▁fiona	-11.9864
▁sniper	-11.9864
▁reiterat	-11.9865
▁clerk	-11.9865
▁digest	-11.9868
▁thug	-11.9869
▁daddy	-11.9871
▁1976	-11.9872
▁zoe	-11.9873
▁aviv	-11.9882
▁oppos	-11.9895
▁merseyside	-11.991
▁aleppo	-11.991
▁biscuit	-11.991
▁enrique	-11.991
▁gorgeous	-11.991
▁griffin	-11.991
▁incorrect	-11.991
▁patricia	-11.991
▁pyramid	-11.991
▁credible	-11.991
▁arnold	-11.991
▁mcconnell	-11.991
▁mixture	-11.9911
▁pardon	-11.9912
dental	-11.9918
▁sanford	-11.9921
stricke	-11.9925
▁ellie	-11.9928
▁denounc	-11.9931
▁healing	-11.9932
▁oval	-11.9939
▁calv	-11.9943
▁1972	-11.9955
▁altercation	-11.9955
▁imagination	-11.9955
▁incorporate	-11.9955
▁narrative	-11.9955
▁patience	-11.9955
▁tsunami	-11.9955
▁shrink	-11.9956
▁rhino	-11.9956
▁fraser	-11.9956
▁giggs	-11.9956
▁wendy	-11.9956
▁canvas	-11.9958
berries	-11.9962
▁curry	-11.9963
▁editorial	-11.9964
▁heighten	-11.9976
terrorism	-11.9984
▁applicant	-12.0002
▁nebraska	-12.0002
▁premises	-12.0002
▁significance	-12.0002
▁toyota	-12.0002
▁fortnight	-12.0002
▁analyz	-12.0002
▁domain	-12.0003
▁subscriber	-12.0005
▁hale	-12.0006
second	-12.0022
ographic	-12.0022
▁pause	-12.0029
▁agricultural	-12.0048
▁portfolio	-12.0048
▁respiratory	-12.0048
▁berkshire	-12.0048
▁corridor	-12.0048
▁dhabi	-12.0048
▁leisure	-12.0048
▁imperial	-12.0048
▁curtis	-12.0048
▁farewell	-12.0048
▁steak	-12.0048
leveson	-12.0048
▁malala	-12.005
aiming	-12.0052
▁profession	-12.0055
▁disrespect	-12.0062
▁wax	-12.0062
zuz	-12.0069
continental	-12.0069
▁isabel	-12.0084
▁arguabl	-12.0089
▁bangkok	-12.0094
▁fragment	-12.0094
▁honeymoon	-12.0094
▁jockey	-12.0094
▁technologies	-12.0094
convenient	-12.0094
▁chloe	-12.0094
▁ancestor	-12.0094
▁gamble	-12.0094
▁ladder	-12.0094
▁1,0	-12.0097
▁holidaymaker	-12.0102
▁sadness	-12.0106
▁gau	-12.0109
▁arson	-12.0112
370	-12.012
▁grocery	-12.0141
▁pilgrim	-12.0141
▁milestone	-12.0143
having	-12.0148
▁disclose	-12.0164
▁panda	-12.0167
▁tactical	-12.017
▁luxurious	-12.0188
▁landlord	-12.0188
▁enrich	-12.019
▁mercy	-12.019
▁consultation	-12.0194
▁dumb	-12.0214
▁mechanical	-12.0223
flowing	-12.0228
author	-12.0234
▁aberdeen	-12.0235
▁consulate	-12.0235
▁zuckerberg	-12.0235
▁hilton	-12.0235
▁hijack	-12.0236
▁screamed	-12.0236
▁creep	-12.0238
▁1971	-12.0244
generation	-12.0245
▁marble	-12.0247
▁scholar	-12.0282
orthodox	-12.0283
▁confiscat	-12.0283
▁consensus	-12.0283
▁equity	-12.0283
▁prolific	-12.0283
▁gaming	-12.0283
▁cattle	-12.0283
woo	-12.0285
▁theories	-12.0289
▁robotic	-12.029
▁poach	-12.0291
elena	-12.0304
▁brew	-12.0313
▁marshal	-12.0321
▁unbeaten	-12.033
▁wireless	-12.033
▁meadow	-12.033
▁steward	-12.033
▁humour	-12.0331
▁hardware	-12.0334
▁marvel	-12.0334
▁turf	-12.0336
▁stiff	-12.0341
▁rory	-12.0342
▁2.3	-12.0354
▁rai	-12.0361
▁embrac	-12.0361
▁neat	-12.037
▁hassan	-12.0372
▁economies	-12.0378
▁indefinite	-12.0378
▁umbrella	-12.0378
▁dublin	-12.0378
▁predominant	-12.0378
▁scoop	-12.0378
▁repeal	-12.0378
▁woodbridge	-12.0379
predictable	-12.0381
covered	-12.0419
▁contaminated	-12.0426
bourne	-12.0426
▁default	-12.0427
▁ransom	-12.0427
▁eyebrow	-12.0428
▁athens	-12.043
▁danish	-12.0434
▁flexible	-12.0474
▁glamour	-12.0474
▁immunity	-12.0474
▁quarantine	-12.0474
▁trayvon	-12.0474
▁tycoon	-12.0474
▁saunders	-12.0475
caliber	-12.0475
▁roast	-12.0475
▁bosnia	-12.0475
▁minorities	-12.0477
▁marcel	-12.05
girlfriend	-12.0508
▁anticipat	-12.0514
▁convenience	-12.0523
▁enthusiasm	-12.0523
▁submarine	-12.0523
▁katrina	-12.0523
▁transmitt	-12.0523
▁dividend	-12.0524
▁colonial	-12.0525
▁oakland	-12.0526
▁paperwork	-12.0527
▁vince	-12.0527
1-4	-12.0528
▁marcus	-12.0538
▁kerr	-12.054
▁ginger	-12.0543
ozil	-12.0548
▁expose	-12.055
convict	-12.0564
▁catastrophic	-12.0572
▁fragile	-12.0572
▁intruder	-12.0572
▁obsession	-12.0572
▁genius	-12.0572
▁pavement	-12.0572
▁maritime	-12.0572
▁geographic	-12.0572
▁rainbow	-12.0573
▁accountability	-12.0576
2.4	-12.0579
versus	-12.0597
abid	-12.0597
lipping	-12.0607
eagles	-12.0619
▁berlusconi	-12.0621
▁capabilities	-12.0621
▁delegation	-12.0621
▁erdogan	-12.0621
▁jeopard	-12.0621
▁bournemouth	-12.0621
▁portsmouth	-12.0621
▁suppress	-12.0621
▁camilla	-12.0621
▁herrera	-12.0621
▁thrive	-12.0622
▁outgoing	-12.0622
▁thunder	-12.0623
▁rubio	-12.0623
▁installation	-12.0625
▁silly	-12.0626
▁audition	-12.0647
▁ibrahim	-12.065
▁frightening	-12.067
▁guantanamo	-12.067
▁literature	-12.067
▁prejudice	-12.067
▁delicate	-12.067
▁piano	-12.0671
▁trench	-12.0671
▁bunker	-12.0672
▁brawl	-12.0672
▁summon	-12.0673
riots	-12.0673
strom	-12.0678
▁locate	-12.0698
minded	-12.0703
▁dzhokhar	-12.072
▁endorsement	-12.072
▁branson	-12.072
▁supplied	-12.0721
▁1945	-12.0728
▁burke	-12.073
doping	-12.0736
▁enabl	-12.0751
▁elevator	-12.0769
▁magnificent	-12.0769
▁receipt	-12.0769
▁facilitat	-12.0769
▁safari	-12.0769
▁uganda	-12.077
▁raymond	-12.0771
▁joyce	-12.0778
▁womb	-12.0787
titanic	-12.0794
▁lei	-12.0802
▁magistrate	-12.0802
tumbled	-12.0808
responsive	-12.0819
▁aggression	-12.0819
▁disastrous	-12.0819
▁gruesome	-12.0819
▁kathleen	-12.0819
▁convey	-12.0819
▁2.2	-12.082
bullied	-12.0822
▁playground	-12.0823
▁olive	-12.0825
▁panama	-12.0829
▁armour	-12.0829
oulter	-12.0834
length	-12.0844
▁firearm	-12.0853
▁contributor	-12.087
▁malcolm	-12.087
▁prosthetic	-12.087
▁paradise	-12.087
▁capsule	-12.087
▁podium	-12.087
▁autism	-12.087
▁fanatic	-12.087
▁bolster	-12.087
▁preview	-12.0872
▁inventor	-12.0875
▁choir	-12.0876
▁cooperate	-12.0879
▁silk	-12.088
building	-12.0884
▁apologi	-12.0892
▁ensemble	-12.092
▁frederick	-12.092
▁prototype	-12.092
▁surgical	-12.092
▁drastic	-12.092
▁kabul	-12.092
▁exeter	-12.092
▁hmrc	-12.092
▁4-0	-12.092
▁catwalk	-12.0921
▁abundan	-12.0922
▁rainfall	-12.0922
▁interstate	-12.0923
▁cheque	-12.0928
inspired	-12.0959
▁delaware	-12.0971
▁drogba	-12.0971
▁fountain	-12.0971
▁mosquito	-12.0971
▁sprawl	-12.0971
▁sunglasses	-12.0971
▁voyage	-12.0971
▁utility	-12.0971
▁crusade	-12.0971
▁carved	-12.0972
▁crumbl	-12.0972
▁vigilant	-12.0973
▁bundle	-12.0973
▁irritat	-12.0973
▁handbag	-12.0974
crest	-12.0977
▁scope	-12.0978
▁gallo	-12.1011
▁altitude	-12.1022
▁belfast	-12.1022
▁inaugural	-12.1022
▁aurora	-12.1022
▁klein	-12.1022
▁edited	-12.1023
▁loyalty	-12.1025
jiang	-12.1027
▁punt	-12.1031
▁designat	-12.1043
▁refuge	-12.1047
olving	-12.1052
▁responsibilit	-12.1056
▁emphasize	-12.1073
▁etihad	-12.1073
▁pittsburgh	-12.1073
▁fraternity	-12.1073
▁crunch	-12.1073
▁kanye	-12.1073
▁differ	-12.1074
▁beheading	-12.1074
▁geek	-12.1075
▁compliment	-12.1125
▁convincing	-12.1125
▁houthi	-12.1125
▁miserable	-12.1125
▁blessing	-12.1125
▁cheeky	-12.1129
▁situat	-12.1168
▁rampage	-12.1172
▁presid	-12.1173
▁abnormal	-12.1177
▁florence	-12.1177
▁kangaroo	-12.1177
▁physics	-12.1177
▁vibrant	-12.1177
▁nashville	-12.1177
▁pearson	-12.1177
▁dairy	-12.1177
▁reddit	-12.1177
▁ncaa	-12.1177
▁grasp	-12.1177
hannon	-12.1181
▁flagship	-12.1182
profit	-12.1188
3.3	-12.1196
▁remarkabl	-12.1199
▁titan	-12.1204
▁cpr	-12.1209
▁accomplice	-12.1229
▁captivity	-12.1229
▁engulf	-12.1229
▁onlooker	-12.1229
▁psychiatrist	-12.1229
▁unanimous	-12.1229
▁vodka	-12.1229
▁beatrice	-12.1229
▁footsteps	-12.1229
▁quinn	-12.1229
sphere	-12.1229
kahn	-12.1229
▁alpha	-12.1229
▁scour	-12.123
▁evaluation	-12.123
▁hobby	-12.1231
▁misery	-12.1233
▁yaya	-12.1234
▁abbas	-12.1237
▁allied	-12.124
▁oblig	-12.1278
▁appetite	-12.1281
▁hussain	-12.1281
▁medieval	-12.1281
▁satisfy	-12.1281
▁glorious	-12.1281
▁whitehall	-12.1281
▁wheat	-12.1281
germain	-12.1281
▁deflect	-12.1281
▁fraction	-12.1281
▁sutton	-12.1281
thorpe	-12.1281
▁curtain	-12.1283
▁gerard	-12.1283
▁teddy	-12.1285
▁pork	-12.1289
group	-12.131
lapped	-12.1314
digit	-12.1328
▁constitute	-12.1334
▁criteria	-12.1334
▁eyewitness	-12.1334
▁knives	-12.1334
▁savannah	-12.1334
▁undoubted	-12.1334
▁shallow	-12.1334
▁thread	-12.1336
▁liberation	-12.1336
▁dispatcher	-12.1344
▁surgeri	-12.1359
calorie	-12.1367
square	-12.1372
3.2	-12.1373
▁strap	-12.1384
▁loudoun	-12.1386
▁thirty	-12.1386
▁dedication	-12.1386
▁madonna	-12.1386
▁bronx	-12.1387
▁arraign	-12.1387
▁disguise	-12.1387
▁ralph	-12.1387
▁darwin	-12.1389
▁kean	-12.1392
muslim	-12.1428
▁congregation	-12.144
▁falkland	-12.144
▁middlesbrough	-12.144
▁mohammad	-12.144
▁muhammad	-12.144
▁plaintiff	-12.144
▁supermodel	-12.144
▁culminat	-12.144
▁convoy	-12.144
▁invisible	-12.144
adidas	-12.144
▁clinch	-12.1441
populat	-12.1441
▁meteorite	-12.1441
▁taunt	-12.1442
▁shutdown	-12.1442
▁polite	-12.1443
▁salute	-12.1443
▁lease	-12.1474
▁intact	-12.1482
▁contempt	-12.1493
▁hilarious	-12.1493
▁merchant	-12.1493
▁spectacle	-12.1493
▁prevail	-12.1493
▁wiltshire	-12.1493
▁gomez	-12.1493
wisdom	-12.1493
▁digging	-12.1495
▁glance	-12.1495
▁faint	-12.1496
▁soared	-12.1496
▁kurd	-12.1496
▁discard	-12.1502
themed	-12.1508
▁corona	-12.1517
▁advocacy	-12.1547
▁battalion	-12.1547
▁boutique	-12.1547
▁cumbria	-12.1547
▁netflix	-12.1547
▁yankees	-12.1547
▁qanta	-12.1547
▁hoax	-12.1547
▁flirt	-12.1547
▁xavi	-12.1547
▁cellphone	-12.1548
▁rotherh	-12.155
▁lunar	-12.1551
▁mastermind	-12.1562
ribery	-12.1584
▁mahmoud	-12.1601
▁xinhua	-12.1601
▁spectrum	-12.1601
▁caravan	-12.1602
▁debbi	-12.1602
▁ribs	-12.1604
▁afp	-12.1607
▁typ	-12.1638
▁horrifying	-12.1655
▁jefferson	-12.1655
▁bundes	-12.1656
▁grammy	-12.1656
▁swoll	-12.1657
▁framework	-12.1657
▁tyson	-12.1663
▁cramp	-12.1664
▁swarm	-12.1691
▁migrant	-12.1707
▁autobiography	-12.171
▁categories	-12.171
▁extremism	-12.171
▁whatsoever	-12.171
▁turbulen	-12.171
▁acclaim	-12.171
▁restoration	-12.171
▁assurance	-12.171
▁pencil	-12.171
▁genital	-12.171
▁harriet	-12.171
▁scholarship	-12.1711
▁strand	-12.1712
▁elbow	-12.1712
▁monica	-12.1712
▁brett	-12.1722
▁integr	-12.1724
▁provinc	-12.1755
▁applause	-12.1765
▁fabulous	-12.1765
▁paralympic	-12.1765
▁sequence	-12.1765
▁bruises	-12.1765
▁bystander	-12.1765
▁anthem	-12.1766
▁ryanair	-12.1768
▁mimic	-12.1775
emergenc	-12.1776
▁cheltenham	-12.182
▁coventry	-12.182
▁hsbc	-12.182
▁parallel	-12.182
▁puppie	-12.182
▁vancouver	-12.182
▁accumulat	-12.182
▁fraudulent	-12.182
▁variation	-12.182
▁welcoming	-12.182
▁crab	-12.182
marital	-12.182
▁qualities	-12.182
▁idaho	-12.1821
▁outlined	-12.1822
▁simmon	-12.1823
fashioned	-12.1838
▁hezbollah	-12.1876
▁kremlin	-12.1876
▁misleading	-12.1876
▁puppet	-12.1876
▁rhythm	-12.1876
▁santiago	-12.1876
▁shakespeare	-12.1876
charitable	-12.1876
▁accessories	-12.1876
▁pundit	-12.1876
▁guzman	-12.1876
▁reconstruction	-12.1876
▁schoolboy	-12.1876
▁dentist	-12.1876
▁pacqui	-12.1876
▁therapist	-12.1877
▁mccann	-12.1877
:20	-12.1879
▁relieve	-12.1901
defense	-12.1927
haved	-12.1927
▁northampton	-12.1928
ompany	-12.1931
aesthetic	-12.1932
▁apprentice	-12.1932
▁beyonce	-12.1932
▁identities	-12.1932
▁rouhani	-12.1932
▁separation	-12.1932
▁troubling	-12.1932
▁cluster	-12.1932
▁nutrient	-12.1932
▁rookie	-12.1932
▁naomi	-12.1932
▁parsons	-12.1932
▁entries	-12.1933
▁soaring	-12.1934
▁enlist	-12.1935
▁tactic	-12.1954
connell	-12.1963
▁703-4	-12.1988
▁ancelotti	-12.1988
▁chemistry	-12.1988
▁horrendous	-12.1988
▁relentless	-12.1988
▁dismantl	-12.1988
▁dixon	-12.1988
▁modified	-12.1988
conquer	-12.1989
income	-12.1991
▁grape	-12.2004
▁commun	-12.2033
▁rallies	-12.2044
▁schneider	-12.2044
▁technological	-12.2044
▁patterson	-12.2044
▁laurel	-12.2044
▁cameroon	-12.2044
▁sickening	-12.2044
▁isaac	-12.2045
▁heavyweight	-12.2045
▁resource	-12.2047
▁rogue	-12.2047
▁communicat	-12.206
4.3	-12.2075
▁practic	-12.2092
▁kiera	-12.2101
▁avalanche	-12.2101
▁creativity	-12.2101
▁eclipse	-12.2101
▁nairobi	-12.2101
▁concession	-12.2101
▁playboy	-12.2101
▁descent	-12.2103
▁curator	-12.2103
▁frog	-12.2104
listened	-12.2114
?	-12.2119
▁hann	-12.2125
▁appoint	-12.2151
respondents	-12.2157
▁benedict	-12.2158
▁envelope	-12.2158
▁hybrid	-12.2158
▁inadequate	-12.2158
▁lizzie	-12.2158
▁raheem	-12.2158
▁gossip	-12.2158
▁improper	-12.2158
▁indulge	-12.2158
▁dreamliner	-12.2158
▁malicious	-12.2159
2.6	-12.2173
▁blasi	-12.2207
▁absurd	-12.2216
▁acquisition	-12.2216
▁wizard	-12.2216
▁indianapolis	-12.2216
▁steroid	-12.2216
▁coronation	-12.2216
stellar	-12.2218
▁doyle	-12.2218
▁sniff	-12.2219
▁flori	-12.2225
▁evade	-12.2236
ejected	-12.2273
▁bethesda	-12.2274
▁cyprus	-12.2274
▁demolish	-12.2274
▁fugitive	-12.2274
▁graffiti	-12.2274
▁philpott	-12.2274
▁pneumonia	-12.2274
▁peanut	-12.2274
▁niece	-12.2275
▁smear	-12.2276
▁firefighter	-12.228
design	-12.228
trip	-12.2289
▁botch	-12.2305
social	-12.2309
▁cremat	-12.2318
▁appreciation	-12.2332
▁despair	-12.2332
▁enclosure	-12.2332
▁legislator	-12.2332
▁mccartney	-12.2332
▁strategies	-12.2332
▁strategist	-12.2332
consuming	-12.2332
▁ipswich	-12.2332
▁memphis	-12.2332
▁output	-12.2332
▁backwards	-12.2333
▁oxfordshire	-12.2333
resistant	-12.2349
▁propose	-12.2369
respective	-12.2389
▁ahmadinejad	-12.239
▁charlton	-12.239
▁fragrance	-12.239
▁mugabe	-12.239
▁stereotype	-12.239
▁unpopular	-12.239
▁forthcoming	-12.239
▁newark	-12.239
▁rational	-12.2391
▁hyde	-12.2411
2.7	-12.2422
metric	-12.2429
hayden	-12.2445
▁devastati	-12.2449
naissance	-12.2449
▁biography	-12.2449
▁curfew	-12.2449
▁stigma	-12.2449
▁junction	-12.2449
▁gcse	-12.2449
▁reclaim	-12.2449
zhou	-12.2449
▁civic	-12.245
▁mitigati	-12.245
▁sync	-12.2459
logged	-12.2494
control	-12.2497
apartheid	-12.2508
psychology	-12.2508
▁artillery	-12.2508
▁lallana	-12.2508
▁lamborghini	-12.2508
▁canterbury	-12.2508
▁chaotic	-12.2508
▁twelve	-12.2508
▁nissan	-12.2508
▁revolve	-12.2509
▁cesc	-12.2509
felt	-12.2517
▁lesli	-12.2526
▁ibrahimov	-12.2532
▁criticiz	-12.2532
astair	-12.2558
▁concussion	-12.2568
▁salvador	-12.2568
▁sinclair	-12.2568
▁trophies	-12.2568
▁turmoil	-12.2568
▁bachelor	-12.2568
▁jfk	-12.2568
▁703-2	-12.2568
▁discourage	-12.2568
▁reckon	-12.2568
▁salvage	-12.2568
▁surpass	-12.2568
▁flores	-12.2568
ullah	-12.2577
▁persuad	-12.2584
wheel	-12.2593
colour	-12.2595
▁arrange	-12.2604
▁exaggerat	-12.2628
▁karzai	-12.2628
▁senegal	-12.2628
▁corporal	-12.2628
▁deadliest	-12.2628
▁gorilla	-12.2628
▁http	-12.2628
▁paterno	-12.2628
▁razor	-12.2628
▁defiant	-12.2628
▁shirley	-12.2628
▁tumor	-12.2628
▁microphone	-12.2628
▁kercher	-12.2629
▁consequence	-12.264
driving	-12.2651
served	-12.2655
8.5	-12.2676
▁hygiene	-12.2688
▁municipal	-12.2688
▁occupant	-12.2688
▁fowler	-12.2688
▁guinness	-12.2688
▁sworn	-12.2688
▁daisy	-12.2688
▁panoram	-12.2688
▁natash	-12.2689
▁settl	-12.273
▁alvarez	-12.2748
▁contemplat	-12.2748
▁dehydrat	-12.2748
▁disabilities	-12.2748
▁intimidate	-12.2748
▁molecule	-12.2748
▁reservoir	-12.2748
▁unearth	-12.2748
▁volatile	-12.2748
▁volcanic	-12.2748
▁harrowing	-12.2748
▁barricad	-12.2749
▁demographic	-12.2749
▁packaging	-12.275
▁covet	-12.2751
solicit	-12.2764
pierre	-12.279
stakes	-12.2799
▁cancellation	-12.2809
▁delicious	-12.2809
▁garbage	-12.2809
▁laundry	-12.2809
▁olivier	-12.2809
▁pharmaceutical	-12.2809
▁vacuum	-12.2809
▁301-9	-12.2809
▁mogul	-12.2809
▁orientation	-12.2809
▁systematic	-12.2809
▁walmart	-12.2809
▁mobility	-12.281
▁geoffr	-12.2811
colored	-12.2858
:05	-12.2859
▁assumption	-12.2871
▁caucus	-12.2871
▁emmanuel	-12.2871
▁irresponsible	-12.2871
▁jubilee	-12.2871
▁legislature	-12.2871
▁transmission	-12.2871
▁havana	-12.2871
▁mumbai	-12.2871
▁probable	-12.2871
▁maurici	-12.2871
▁gibbs	-12.2871
▁mccoy	-12.2871
▁diesel	-12.2872
▁lanza	-12.2873
girl	-12.2924
▁kuwait	-12.2932
▁outburst	-12.2932
▁solidarity	-12.2932
▁pivot	-12.2933
▁canberra	-12.2933
▁alfred	-12.2933
▁blunder	-12.2933
▁painkiller	-12.2956
▁blockbuster	-12.2995
▁conversion	-12.2995
▁flexibility	-12.2995
▁satisfaction	-12.2995
▁steenkamp	-12.2995
▁wolver	-12.2995
▁essence	-12.2995
▁cyrus	-12.2995
semiti	-12.3009
▁solle	-12.3021
▁merchandise	-12.3057
▁structural	-12.3057
▁mayfair	-12.3057
▁prophet	-12.3057
▁shrine	-12.3057
▁baldwin	-12.3058
▁jorge	-12.3058
▁swoop	-12.3058
▁301-2	-12.312
▁croydon	-12.312
▁genocide	-12.312
▁gibraltar	-12.312
▁infectious	-12.312
▁neanderthal	-12.312
▁terribly	-12.312
▁census	-12.312
▁statute	-12.312
▁perfume	-12.312
:08	-12.3132
▁mechanic	-12.3136
:03	-12.3167
▁hospitaliz	-12.3171
▁assailant	-12.3183
▁gallagher	-12.3183
▁morocco	-12.3183
▁surreal	-12.3183
▁crouch	-12.3183
3.6	-12.3234
▁compensat	-12.3244
▁confess	-12.3245
▁landslide	-12.3247
▁motorbike	-12.3247
▁sturgeon	-12.3247
▁boulder	-12.3247
▁lgbt	-12.3247
▁meredith	-12.3247
▁panetta	-12.3247
▁influx	-12.3247
▁sensible	-12.3247
▁janeiro	-12.3248
▁subtle	-12.3248
gress	-12.3268
married	-12.3285
▁dimension	-12.3297
▁samaritan	-12.3311
▁affluen	-12.3311
▁compliance	-12.3311
▁provocative	-12.3311
▁underestimat	-12.3311
▁mackay	-12.3311
▁homophobi	-12.3311
▁assuming	-12.3311
▁mattress	-12.3311
▁loophole	-12.3311
▁tenants	-12.3311
▁blitz	-12.3312
▁discharge	-12.3354
limited	-12.336
:59	-12.3365
▁301-8	-12.3376
▁lebanese	-12.3376
▁superhero	-12.3376
▁derail	-12.3376
▁tolerance	-12.3376
▁drake	-12.3378
▁huddl	-12.3382
▁cincinnati	-12.344
▁clooney	-12.344
▁headteacher	-12.344
▁hertfordshire	-12.344
▁intimidation	-12.344
▁jellyfish	-12.344
▁macdonald	-12.344
▁pediatric	-12.344
▁rallied	-12.344
▁stimulus	-12.344
▁unsafe	-12.344
▁envoy	-12.344
▁medicare	-12.3441
:01	-12.3444
▁tumble	-12.3455
▁sibling	-12.3469
1.9	-12.3494
▁disadvantage	-12.3506
▁optimism	-12.3506
▁reconciliation	-12.3506
▁zombie	-12.3506
▁trierwe	-12.3506
▁marilyn	-12.3506
▁synthe	-12.3506
▁whisper	-12.3506
▁preacher	-12.3506
▁fabian	-12.3506
▁sofia	-12.351
spirational	-12.3537
▁dishonest	-12.355
3.7	-12.3569
▁uranium	-12.3572
▁voucher	-12.3572
▁oyster	-12.3572
▁beacon	-12.3573
boyfriend	-12.358
4.2	-12.3602
▁fringe	-12.3603
:10	-12.362
3.4	-12.3625
2.8	-12.3631
raeme	-12.3631
▁dessert	-12.3638
▁ecstasy	-12.3638
▁quirky	-12.3638
▁catalan	-12.3638
▁tractor	-12.3638
▁invention	-12.3639
▁cairn	-12.364
▁ahmad	-12.3641
▁parcel	-12.3641
albion	-12.3642
church	-12.3646
sculp	-12.3658
colony	-12.3689
▁inevitab	-12.3701
disproportionate	-12.3705
▁compatriot	-12.3705
▁inauguration	-12.3705
▁inclusion	-12.3705
▁irregular	-12.3705
▁liberties	-12.3705
▁negligence	-12.3705
▁tabloid	-12.3705
▁embroil	-12.3705
▁sevilla	-12.3705
▁flawed	-12.3705
▁indigen	-12.3705
▁atomic	-12.3705
▁ernest	-12.3706
▁chorl	-12.3707
regulated	-12.3709
▁allocat	-12.3718
largest	-12.3731
▁atmospheric	-12.3772
▁insufficient	-12.3772
▁wilderness	-12.3772
▁kyrg	-12.3772
▁thunderstorm	-12.3772
▁atrocities	-12.3839
▁incumbent	-12.3839
▁suffocat	-12.3839
▁vulnerabilit	-12.3839
▁jagger	-12.3839
cynthi	-12.3839
▁cognitive	-12.3839
esteem	-12.384
▁stump	-12.384
georgi	-12.3842
:02	-12.3843
:04	-12.3874
jasmine	-12.3907
▁cunningham	-12.3907
▁intersection	-12.3907
▁jurisdiction	-12.3907
▁picnic	-12.3907
▁thomson	-12.3907
▁practise	-12.3907
▁eugeni	-12.3908
▁terminate	-12.3909
▁culp	-12.391
▁prevalen	-12.391
:25	-12.3917
clear	-12.3931
communica	-12.3942
▁illuminat	-12.3976
insurgency	-12.3976
▁guatemala	-12.3976
▁injustice	-12.3976
▁cassidy	-12.3976
▁walcott	-12.3976
▁plough	-12.3976
wight	-12.3976
▁meditat	-12.398
▁suppose	-12.4023
▁confusing	-12.4045
▁judiciary	-12.4045
▁minneapolis	-12.4045
▁flourish	-12.4045
▁jackpot	-12.4045
▁casilla	-12.4045
▁nikki	-12.4045
▁martyr	-12.4045
:06	-12.4061
:22	-12.4066
▁evacuate	-12.4092
record	-12.4107
▁abilities	-12.4114
▁caffeine	-12.4114
▁certified	-12.4114
▁mercury	-12.4114
▁miscarriage	-12.4114
▁rehearsal	-12.4114
▁remembrance	-12.4114
▁scooter	-12.4114
▁ridicule	-12.4114
▁sausage	-12.4114
▁slovenia	-12.4114
▁summary	-12.4114
▁unjust	-12.4114
▁abolish	-12.4114
▁scholes	-12.4114
securities	-12.4124
:49	-12.4145
▁consol	-12.4164
enhanc	-12.4166
▁catalogue	-12.4184
▁johannesburg	-12.4184
▁straightforward	-12.4184
▁yazidi	-12.4184
▁apprehend	-12.4184
▁succumb	-12.4184
phobia	-12.4184
▁kobane	-12.4184
▁barracks	-12.4184
▁steadily	-12.4184
▁claudi	-12.4184
▁carnage	-12.4184
▁redskins	-12.4184
▁bruising	-12.4184
▁pulse	-12.4184
:13	-12.4185
▁liberat	-12.4185
▁paranoi	-12.4186
3.1	-12.4212
:23	-12.4226
:17	-12.4231
▁exercis	-12.4233
▁intoxicated	-12.4254
▁montreal	-12.4254
▁submission	-12.4254
#	-13.4127
`	-13.8021
